alignas(8) const unsigned char g_model[] = {
  0x1c, 0x00, 0x00, 0x00, 0x54, 0x46, 0x4c, 0x33, 0x14, 0x00, 0x20, 0x00,
  0x1c, 0x00, 0x18, 0x00, 0x14, 0x00, 0x10, 0x00, 0x0c, 0x00, 0x00, 0x00,
  0x08, 0x00, 0x04, 0x00, 0x14, 0x00, 0x00, 0x00, 0x1c, 0x00, 0x00, 0x00,
  0x98, 0x00, 0x00, 0x00, 0x18, 0x01, 0x00, 0x00, 0x38, 0x15, 0x00, 0x00,
  0x48, 0x15, 0x00, 0x00, 0x80, 0x2b, 0x00, 0x00, 0x03, 0x00, 0x00, 0x00,
  0x01, 0x00, 0x00, 0x00, 0x10, 0x00, 0x00, 0x00, 0x00, 0x00, 0x0a, 0x00,
  0x10, 0x00, 0x0c, 0x00, 0x08, 0x00, 0x04, 0x00, 0x0a, 0x00, 0x00, 0x00,
  0x0c, 0x00, 0x00, 0x00, 0x1c, 0x00, 0x00, 0x00, 0x3c, 0x00, 0x00, 0x00,
  0x0f, 0x00, 0x00, 0x00, 0x73, 0x65, 0x72, 0x76, 0x69, 0x6e, 0x67, 0x5f,
  0x64, 0x65, 0x66, 0x61, 0x75, 0x6c, 0x74, 0x00, 0x01, 0x00, 0x00, 0x00,
  0x04, 0x00, 0x00, 0x00, 0x68, 0xff, 0xff, 0xff, 0x11, 0x00, 0x00, 0x00,
  0x04, 0x00, 0x00, 0x00, 0x08, 0x00, 0x00, 0x00, 0x6f, 0x75, 0x74, 0x70,
  0x75, 0x74, 0x5f, 0x30, 0x00, 0x00, 0x00, 0x00, 0x01, 0x00, 0x00, 0x00,
  0x04, 0x00, 0x00, 0x00, 0xae, 0xea, 0xff, 0xff, 0x04, 0x00, 0x00, 0x00,
  0x0c, 0x00, 0x00, 0x00, 0x6b, 0x65, 0x72, 0x61, 0x73, 0x5f, 0x74, 0x65,
  0x6e, 0x73, 0x6f, 0x72, 0x00, 0x00, 0x00, 0x00, 0x03, 0x00, 0x00, 0x00,
  0x5c, 0x00, 0x00, 0x00, 0x2c, 0x00, 0x00, 0x00, 0x04, 0x00, 0x00, 0x00,
  0xb8, 0xff, 0xff, 0xff, 0x15, 0x00, 0x00, 0x00, 0x04, 0x00, 0x00, 0x00,
  0x13, 0x00, 0x00, 0x00, 0x43, 0x4f, 0x4e, 0x56, 0x45, 0x52, 0x53, 0x49,
  0x4f, 0x4e, 0x5f, 0x4d, 0x45, 0x54, 0x41, 0x44, 0x41, 0x54, 0x41, 0x00,
  0xdc, 0xff, 0xff, 0xff, 0x14, 0x00, 0x00, 0x00, 0x04, 0x00, 0x00, 0x00,
  0x13, 0x00, 0x00, 0x00, 0x6d, 0x69, 0x6e, 0x5f, 0x72, 0x75, 0x6e, 0x74,
  0x69, 0x6d, 0x65, 0x5f, 0x76, 0x65, 0x72, 0x73, 0x69, 0x6f, 0x6e, 0x00,
  0x08, 0x00, 0x0c, 0x00, 0x08, 0x00, 0x04, 0x00, 0x08, 0x00, 0x00, 0x00,
  0x13, 0x00, 0x00, 0x00, 0x04, 0x00, 0x00, 0x00, 0x13, 0x00, 0x00, 0x00,
  0x6d, 0x69, 0x6e, 0x5f, 0x72, 0x75, 0x6e, 0x74, 0x69, 0x6d, 0x65, 0x5f,
  0x76, 0x65, 0x72, 0x73, 0x69, 0x6f, 0x6e, 0x00, 0x16, 0x00, 0x00, 0x00,
  0x1c, 0x14, 0x00, 0x00, 0x14, 0x14, 0x00, 0x00, 0xfc, 0x13, 0x00, 0x00,
  0xe4, 0x13, 0x00, 0x00, 0x54, 0x13, 0x00, 0x00, 0x44, 0x12, 0x00, 0x00,
  0x34, 0x0a, 0x00, 0x00, 0xa4, 0x09, 0x00, 0x00, 0x94, 0x01, 0x00, 0x00,
  0x44, 0x01, 0x00, 0x00, 0xf4, 0x00, 0x00, 0x00, 0xec, 0x00, 0x00, 0x00,
  0xe4, 0x00, 0x00, 0x00, 0xdc, 0x00, 0x00, 0x00, 0xd4, 0x00, 0x00, 0x00,
  0xcc, 0x00, 0x00, 0x00, 0xc4, 0x00, 0x00, 0x00, 0xbc, 0x00, 0x00, 0x00,
  0xb4, 0x00, 0x00, 0x00, 0x94, 0x00, 0x00, 0x00, 0x74, 0x00, 0x00, 0x00,
  0x04, 0x00, 0x00, 0x00, 0xaa, 0xeb, 0xff, 0xff, 0x04, 0x00, 0x00, 0x00,
  0x60, 0x00, 0x00, 0x00, 0x0c, 0x00, 0x00, 0x00, 0x08, 0x00, 0x0e, 0x00,
  0x08, 0x00, 0x04, 0x00, 0x08, 0x00, 0x00, 0x00, 0x10, 0x00, 0x00, 0x00,
  0x28, 0x00, 0x00, 0x00, 0x00, 0x00, 0x06, 0x00, 0x08, 0x00, 0x04, 0x00,
  0x06, 0x00, 0x00, 0x00, 0x04, 0x00, 0x00, 0x00, 0x01, 0x00, 0x00, 0x00,
  0xeb, 0x03, 0x00, 0x00, 0x0c, 0x00, 0x18, 0x00, 0x14, 0x00, 0x10, 0x00,
  0x0c, 0x00, 0x04, 0x00, 0x0c, 0x00, 0x00, 0x00, 0xed, 0xf1, 0x63, 0xe1,
  0x28, 0x15, 0xb3, 0xc7, 0x02, 0x00, 0x00, 0x00, 0x02, 0x00, 0x00, 0x00,
  0x04, 0x00, 0x00, 0x00, 0x06, 0x00, 0x00, 0x00, 0x32, 0x2e, 0x31, 0x39,
  0x2e, 0x30, 0x00, 0x00, 0x16, 0xec, 0xff, 0xff, 0x04, 0x00, 0x00, 0x00,
  0x10, 0x00, 0x00, 0x00, 0x00, 0x00, 0x00, 0x00, 0x00, 0x00, 0x00, 0x00,
  0x00, 0x00, 0x00, 0x00, 0x00, 0x00, 0x00, 0x00, 0x32, 0xec, 0xff, 0xff,
  0x04, 0x00, 0x00, 0x00, 0x10, 0x00, 0x00, 0x00, 0x31, 0x2e, 0x31, 0x34,
  0x2e, 0x30, 0x00, 0x00, 0x00, 0x00, 0x00, 0x00, 0x00, 0x00, 0x00, 0x00,
  0x64, 0xd7, 0xff, 0xff, 0x68, 0xd7, 0xff, 0xff, 0x6c, 0xd7, 0xff, 0xff,
  0x70, 0xd7, 0xff, 0xff, 0x74, 0xd7, 0xff, 0xff, 0x78, 0xd7, 0xff, 0xff,
  0x7c, 0xd7, 0xff, 0xff, 0x80, 0xd7, 0xff, 0xff, 0x6e, 0xec, 0xff, 0xff,
  0x04, 0x00, 0x00, 0x00, 0x40, 0x00, 0x00, 0x00, 0xbf, 0xc6, 0xd1, 0x7f,
  0xac, 0x81, 0x37, 0x73, 0xab, 0xf9, 0x7f, 0xfd, 0x53, 0xf8, 0x7f, 0x0c,
  0x81, 0x51, 0xa5, 0xd2, 0xb0, 0xb0, 0x2f, 0x81, 0x09, 0x7f, 0x38, 0x25,
  0x61, 0x7f, 0xb9, 0xe7, 0x0d, 0x59, 0xac, 0x81, 0x87, 0x81, 0x0f, 0xc5,
  0x76, 0x01, 0x7f, 0x9f, 0x89, 0x99, 0x81, 0x7e, 0x59, 0x77, 0x59, 0x7f,
  0x0b, 0x4a, 0x7f, 0x03, 0x81, 0xd2, 0x20, 0xfd, 0xcd, 0x7b, 0x23, 0x81,
  0xba, 0xec, 0xff, 0xff, 0x04, 0x00, 0x00, 0x00, 0x40, 0x00, 0x00, 0x00,
  0x05, 0x00, 0x00, 0x00, 0xfe, 0xff, 0xff, 0xff, 0xfc, 0xff, 0xff, 0xff,
  0x09, 0x00, 0x00, 0x00, 0xf9, 0xff, 0xff, 0xff, 0x02, 0x00, 0x00, 0x00,
  0x01, 0x00, 0x00, 0x00, 0xfe, 0xff, 0xff, 0xff, 0xfd, 0xff, 0xff, 0xff,
  0xfd, 0xff, 0xff, 0xff, 0x04, 0x00, 0x00, 0x00, 0xff, 0xff, 0xff, 0xff,
  0xf9, 0xff, 0xff, 0xff, 0x01, 0x00, 0x00, 0x00, 0xfd, 0xff, 0xff, 0xff,
  0x03, 0x00, 0x00, 0x00, 0x06, 0xed, 0xff, 0xff, 0x04, 0x00, 0x00, 0x00,
  0x00, 0x08, 0x00, 0x00, 0x48, 0xff, 0x6b, 0xd0, 0x00, 0xb4, 0x12, 0xd9,
  0xfb, 0x3e, 0xde, 0x02, 0xad, 0xc2, 0xe3, 0x7f, 0x5b, 0xdc, 0x4a, 0xfe,
  0x33, 0x61, 0x20, 0xa3, 0x03, 0xa7, 0xf9, 0x55, 0x39, 0x30, 0xbe, 0x7f,
  0xc6, 0x3c, 0x53, 0xaf, 0xaf, 0x9e, 0x69, 0xd2, 0xce, 0xdd, 0xc9, 0x1b,
  0xa8, 0x42, 0x1f, 0x02, 0xc2, 0x68, 0x47, 0x0c, 0x9e, 0xed, 0xce, 0xc9,
  0xb8, 0x32, 0xde, 0xf3, 0x2b, 0xbf, 0xaf, 0xc4, 0xff, 0xfb, 0xc9, 0xba,
  0xf1, 0xfd, 0xc8, 0xed, 0x74, 0x40, 0x52, 0xcf, 0xff, 0xf2, 0x38, 0x5c,
  0x08, 0xde, 0xbb, 0xf3, 0x0b, 0x41, 0x0e, 0x97, 0xca, 0x7f, 0x0a, 0x58,
  0x2d, 0x91, 0xf5, 0x11, 0xdb, 0x25, 0x20, 0x16, 0xc8, 0x0c, 0x28, 0x97,
  0x19, 0x99, 0x26, 0xc7, 0x05, 0x90, 0x2c, 0x3a, 0xb6, 0xbb, 0x47, 0x23,
  0xf8, 0xa2, 0x41, 0xcb, 0xb5, 0xc3, 0x08, 0xc5, 0x5e, 0x3d, 0xf1, 0xed,
  0xed, 0x46, 0x26, 0xc6, 0x19, 0xd6, 0xfc, 0x09, 0x38, 0x43, 0xc4, 0xc1,
  0x18, 0x2b, 0x3b, 0x91, 0x36, 0x39, 0x29, 0xe2, 0xe9, 0xd1, 0x2c, 0x39,
  0x37, 0x1a, 0x2c, 0x43, 0xe5, 0xdb, 0xc9, 0x28, 0xbb, 0xca, 0x04, 0xee,
  0x23, 0xf7, 0xfb, 0xf7, 0x2e, 0x4f, 0xa9, 0x23, 0xf9, 0xdd, 0x55, 0x81,
  0xc5, 0xe1, 0xe3, 0xdb, 0x3c, 0xd0, 0x25, 0x31, 0x01, 0x0d, 0x21, 0x33,
  0x14, 0x3a, 0xcf, 0x34, 0x52, 0xf1, 0x93, 0x34, 0x56, 0x3c, 0xd6, 0x3d,
  0x81, 0x67, 0xf1, 0x5e, 0x41, 0x39, 0xb9, 0xbe, 0x90, 0x88, 0xac, 0x9b,
  0x22, 0x5f, 0x47, 0x63, 0x11, 0x69, 0xc3, 0x3e, 0xae, 0x78, 0x16, 0x21,
  0xb2, 0x3a, 0x8e, 0x1d, 0x9b, 0x00, 0x77, 0x73, 0xc8, 0xf6, 0x9e, 0x6b,
  0x5e, 0x90, 0xe3, 0xa5, 0xa0, 0x2e, 0x6a, 0x95, 0xca, 0x2a, 0x14, 0x8a,
  0x17, 0x38, 0x38, 0xaa, 0xb7, 0xdb, 0x87, 0x08, 0x5e, 0x38, 0x23, 0x2f,
  0xdd, 0xdb, 0x23, 0x0b, 0x72, 0xe3, 0xc0, 0x2b, 0xc2, 0xcd, 0x2f, 0x38,
  0xbc, 0xc5, 0x4b, 0xba, 0xf0, 0xf4, 0xf8, 0xfe, 0xfe, 0x48, 0xb3, 0xef,
  0x47, 0x06, 0x03, 0x81, 0xd2, 0x1d, 0x12, 0xb8, 0x32, 0xfe, 0xf5, 0xe6,
  0xd1, 0xec, 0x36, 0x58, 0x50, 0xeb, 0xef, 0x00, 0xef, 0xf6, 0x3b, 0x41,
  0xa5, 0xc6, 0xd3, 0xee, 0x4a, 0x22, 0xb3, 0x1b, 0xd7, 0xaf, 0xb5, 0x05,
  0x22, 0x59, 0xba, 0xb4, 0xb5, 0x05, 0xc7, 0x2f, 0xbc, 0xfa, 0x14, 0xfd,
  0xf6, 0x45, 0x45, 0xf7, 0xc1, 0x2a, 0x06, 0x42, 0x55, 0x36, 0x27, 0xff,
  0xcc, 0x3f, 0x1d, 0xd1, 0x53, 0xeb, 0xe5, 0x36, 0x81, 0x08, 0x3a, 0xf0,
  0x57, 0xd9, 0xa3, 0xdf, 0xde, 0x6f, 0xbc, 0xfc, 0xb7, 0x9b, 0x32, 0x9d,
  0x45, 0xf3, 0xd3, 0xd0, 0xdc, 0x64, 0x0f, 0x30, 0x31, 0x3a, 0x13, 0xbe,
  0xdc, 0xc9, 0x46, 0xb0, 0xca, 0x4d, 0x35, 0x44, 0xb0, 0xbb, 0x22, 0x5e,
  0x01, 0x71, 0x18, 0xcd, 0x5f, 0x56, 0x6b, 0xe6, 0x3c, 0x70, 0xb4, 0x5a,
  0x73, 0x42, 0x85, 0xbf, 0x1a, 0x27, 0x18, 0x14, 0x8d, 0x9f, 0x6f, 0x13,
  0x3a, 0x36, 0xff, 0x03, 0xd6, 0x54, 0x0d, 0xf3, 0x67, 0x50, 0x6d, 0xa3,
  0xdc, 0x5b, 0xd3, 0x46, 0x7f, 0xfb, 0x3b, 0xe6, 0x06, 0x2c, 0xd7, 0xed,
  0xc4, 0x32, 0x03, 0x25, 0x17, 0xbf, 0x66, 0xf9, 0xf2, 0x37, 0x20, 0x51,
  0x4b, 0x1c, 0x18, 0x93, 0x46, 0xdf, 0x81, 0x55, 0x3c, 0x25, 0xb2, 0x12,
  0x4f, 0x46, 0x67, 0x72, 0x0d, 0x02, 0x17, 0x5e, 0xc6, 0xbf, 0xe0, 0x2b,
  0x12, 0x45, 0xb5, 0x6d, 0xc5, 0xcc, 0x2b, 0x4c, 0x17, 0xea, 0x2a, 0xc7,
  0x9c, 0x37, 0xde, 0xac, 0x55, 0xd4, 0xc5, 0xb5, 0x41, 0xa4, 0x2a, 0xef,
  0xb4, 0x60, 0xca, 0x30, 0x38, 0x05, 0x40, 0x5f, 0x5d, 0xbe, 0x47, 0x18,
  0x01, 0x3d, 0x62, 0xae, 0x05, 0xe9, 0x93, 0xcd, 0xcf, 0x41, 0xbd, 0x5b,
  0x08, 0x60, 0x3e, 0x05, 0xc2, 0x81, 0xa5, 0x23, 0x0d, 0x28, 0x26, 0xc3,
  0x17, 0x99, 0x07, 0xb1, 0x28, 0xc5, 0xc4, 0x7d, 0x3e, 0x22, 0x4a, 0x23,
  0xed, 0xc2, 0x04, 0xff, 0xa8, 0x6f, 0x11, 0xf7, 0x2d, 0x3c, 0x1e, 0xc3,
  0x09, 0x3e, 0x47, 0x51, 0xd1, 0xea, 0xd6, 0x2f, 0x95, 0xa4, 0xf5, 0x3a,
  0xdb, 0x49, 0x69, 0xa6, 0xcb, 0xf9, 0x33, 0x01, 0xd1, 0x1c, 0xbf, 0xaf,
  0xeb, 0xb4, 0x99, 0x70, 0xf3, 0x0b, 0xb9, 0x17, 0xfe, 0xf3, 0x22, 0x97,
  0xbf, 0xc7, 0x7f, 0x12, 0x86, 0x84, 0xcf, 0xb3, 0x40, 0x22, 0xe8, 0x8b,
  0x2b, 0xdb, 0xda, 0xaf, 0xb4, 0x9a, 0x4b, 0x23, 0xb5, 0xd3, 0xf6, 0x11,
  0xf8, 0x6f, 0x16, 0x34, 0xf7, 0x9e, 0xea, 0xb8, 0x30, 0xb9, 0xba, 0xdf,
  0x3b, 0xbd, 0x1b, 0xa9, 0x0b, 0xb2, 0xfa, 0x43, 0x65, 0x1d, 0x1f, 0x3a,
  0x45, 0x03, 0xcf, 0xd6, 0x70, 0xbc, 0x99, 0xa1, 0x45, 0x10, 0xab, 0x7a,
  0x5d, 0xda, 0x12, 0x29, 0xf7, 0x6f, 0x22, 0x06, 0xd8, 0xf9, 0x9d, 0xc3,
  0x40, 0x1a, 0xfa, 0x3b, 0x3b, 0xe3, 0x45, 0xa5, 0x6f, 0x5a, 0xa6, 0x4b,
  0xc5, 0x12, 0x14, 0x75, 0x0a, 0xbf, 0xc2, 0x97, 0xce, 0xbf, 0xc1, 0x3c,
  0xc1, 0x3f, 0x84, 0xaf, 0x04, 0xa9, 0xc1, 0x0f, 0xb3, 0xe4, 0x7f, 0x1a,
  0x82, 0xc1, 0x69, 0x0c, 0x20, 0xed, 0x2c, 0x01, 0x07, 0x15, 0x1c, 0x72,
  0x99, 0xc5, 0xd9, 0x1d, 0xb5, 0xf6, 0xde, 0x96, 0x81, 0x7b, 0x2e, 0x91,
  0xf3, 0xbe, 0xf1, 0x45, 0xff, 0x27, 0x9a, 0x32, 0x35, 0x07, 0x3c, 0xa0,
  0x27, 0xef, 0xac, 0x9e, 0xf9, 0xd8, 0x15, 0xfa, 0xba, 0xa9, 0x41, 0x91,
  0x33, 0xe1, 0x5e, 0xfa, 0xd6, 0xc7, 0x69, 0xbb, 0xee, 0xd7, 0x40, 0x9c,
  0x9a, 0x96, 0x23, 0xe3, 0x24, 0xe0, 0x34, 0x26, 0x19, 0x18, 0xae, 0xd7,
  0xd6, 0xb1, 0x24, 0x3a, 0xbb, 0x20, 0x4d, 0x25, 0x2c, 0x62, 0x2a, 0x44,
  0xcb, 0x03, 0x42, 0x91, 0x3e, 0xf6, 0xdb, 0x0d, 0xee, 0x32, 0x5f, 0xab,
  0x4a, 0xbe, 0x9c, 0x05, 0x2c, 0xc9, 0xaf, 0xed, 0xa7, 0xbc, 0x15, 0x01,
  0xd5, 0x30, 0x0b, 0x2d, 0x81, 0x4f, 0xda, 0x93, 0x23, 0x33, 0xc1, 0x31,
  0x58, 0x50, 0x13, 0xea, 0x01, 0x08, 0x26, 0x42, 0x34, 0x7f, 0x97, 0x23,
  0x41, 0x4d, 0xfa, 0xdf, 0xc3, 0x1e, 0xfd, 0xce, 0x05, 0xc9, 0x02, 0x02,
  0x22, 0xb4, 0x37, 0x1c, 0x12, 0xd3, 0x11, 0xeb, 0xd5, 0x33, 0x35, 0x54,
  0x5f, 0xaa, 0xad, 0x45, 0x3c, 0x4a, 0xb4, 0xa6, 0x11, 0x18, 0x39, 0xe6,
  0x47, 0x6c, 0xa8, 0x00, 0xd5, 0x1a, 0xeb, 0x93, 0x13, 0xe8, 0x3e, 0x46,
  0x41, 0x49, 0xe6, 0x0c, 0x26, 0xcb, 0x45, 0x06, 0x4e, 0x18, 0x09, 0x84,
  0xa8, 0x52, 0xda, 0xe5, 0x0b, 0xf0, 0xf5, 0xfb, 0x40, 0xe3, 0xd8, 0xeb,
  0xdb, 0x0e, 0x39, 0x05, 0x05, 0x3e, 0xbe, 0x4b, 0xdb, 0x44, 0xa8, 0x15,
  0x1b, 0xdf, 0xc9, 0x22, 0x0f, 0xec, 0x0a, 0x22, 0x02, 0x00, 0x0c, 0x25,
  0x67, 0x0c, 0xe7, 0xaa, 0xd3, 0x37, 0x81, 0xd7, 0xf4, 0xf2, 0xc4, 0xcf,
  0xa9, 0x31, 0xe2, 0xf9, 0x46, 0x18, 0xaa, 0xc6, 0xfe, 0xfa, 0xf1, 0xb4,
  0x2b, 0xf7, 0xd6, 0x2e, 0x7f, 0x0a, 0x4f, 0xea, 0x6f, 0x19, 0xef, 0x4b,
  0xea, 0xd5, 0x9f, 0xf4, 0xf8, 0xfe, 0xf8, 0xda, 0x53, 0x15, 0x1a, 0xc9,
  0x27, 0xf7, 0x43, 0xee, 0x51, 0xa3, 0x0d, 0xac, 0x33, 0xf4, 0x2d, 0x54,
  0x10, 0x03, 0x56, 0x1c, 0xb0, 0x2c, 0x40, 0xa8, 0x1c, 0xab, 0xe7, 0xa3,
  0x41, 0xfc, 0x3d, 0xa4, 0xb0, 0xff, 0x09, 0xf1, 0xec, 0xa0, 0x4a, 0xd4,
  0xea, 0xbc, 0x17, 0x0a, 0x41, 0xa2, 0xf9, 0xe4, 0x5b, 0xb9, 0xf2, 0x35,
  0xd9, 0xeb, 0x14, 0xaa, 0xa4, 0x09, 0x56, 0xd7, 0x3e, 0xe3, 0x2a, 0xf0,
  0xa3, 0x21, 0x02, 0xce, 0x56, 0xe5, 0xde, 0x69, 0x09, 0xfe, 0x91, 0xb5,
  0xe1, 0x60, 0xd5, 0x5f, 0x3d, 0xbf, 0x24, 0x0a, 0x07, 0x22, 0x30, 0xa9,
  0x3d, 0xdd, 0x3c, 0x12, 0xcb, 0xe7, 0x19, 0xcc, 0xd0, 0x38, 0xa3, 0xa2,
  0xf0, 0x07, 0xbf, 0xe5, 0x0d, 0xc4, 0x19, 0x47, 0x33, 0x04, 0x48, 0x7f,
  0x47, 0x3c, 0x01, 0xcc, 0x2b, 0xd6, 0x13, 0x23, 0x42, 0x2b, 0xb4, 0x52,
  0x0a, 0x13, 0x2b, 0xde, 0x02, 0x54, 0xe8, 0x18, 0x52, 0x4b, 0xd6, 0x43,
  0x0d, 0x21, 0xfa, 0x51, 0x31, 0x00, 0xf0, 0x09, 0x81, 0xdf, 0xb3, 0xb0,
  0xcb, 0x4e, 0xd2, 0x0f, 0xde, 0xdc, 0xf5, 0xe0, 0xb3, 0x0f, 0x53, 0x3c,
  0xf8, 0xbc, 0xee, 0x0b, 0x4a, 0x36, 0x29, 0xe3, 0x49, 0x07, 0x38, 0xf5,
  0x2e, 0x1f, 0x43, 0x52, 0x06, 0xa3, 0x1b, 0xaa, 0xad, 0x3e, 0x6b, 0x33,
  0x9c, 0x63, 0xaf, 0xd1, 0xbf, 0x9e, 0xb7, 0xf4, 0x04, 0xf3, 0x70, 0xa9,
  0xfa, 0xf1, 0x12, 0xc0, 0xe4, 0xd3, 0x2f, 0x4a, 0x9a, 0xe2, 0x0f, 0x85,
  0xeb, 0x24, 0xbc, 0xa6, 0xd5, 0xfc, 0x0c, 0x29, 0xa7, 0xa3, 0x59, 0x71,
  0x14, 0xc0, 0x5c, 0xb0, 0x01, 0xe1, 0xf9, 0x16, 0xe2, 0xe4, 0x69, 0x63,
  0xe3, 0xbc, 0x64, 0x5c, 0xb4, 0xb4, 0x81, 0xd0, 0xc8, 0x81, 0xe9, 0xa2,
  0x36, 0x1c, 0x5e, 0x2c, 0xd6, 0x00, 0xf8, 0x3e, 0x0f, 0xd9, 0x46, 0x6a,
  0xfa, 0x43, 0xad, 0x17, 0xd4, 0xd3, 0x60, 0xfe, 0xac, 0xe6, 0xce, 0x5c,
  0xd1, 0xa8, 0xac, 0x4b, 0x42, 0xa4, 0xc4, 0x12, 0x1b, 0x22, 0xc3, 0x46,
  0x4a, 0xb7, 0x47, 0xfc, 0x48, 0x4d, 0x68, 0x15, 0xed, 0x56, 0x18, 0x2c,
  0x8e, 0xbe, 0xbb, 0xea, 0xd3, 0xc1, 0x64, 0x16, 0x52, 0xd4, 0x9f, 0x34,
  0x48, 0x38, 0xee, 0x4f, 0x0d, 0xf3, 0xb9, 0xaf, 0x29, 0x34, 0xff, 0x15,
  0xca, 0xa3, 0x33, 0xc7, 0xa2, 0xd2, 0x18, 0xa0, 0x81, 0xd1, 0xf2, 0x9a,
  0xd7, 0x36, 0xbf, 0x5c, 0xb6, 0x48, 0xab, 0x90, 0x2b, 0xe2, 0x4f, 0x02,
  0x3c, 0xc1, 0xd6, 0x9f, 0x34, 0x21, 0x24, 0xab, 0x07, 0x58, 0x24, 0x35,
  0x82, 0xad, 0xe8, 0xb7, 0x2b, 0x04, 0x4d, 0xc5, 0xfc, 0x4e, 0xe2, 0xa6,
  0x14, 0xad, 0x59, 0xec, 0x01, 0xd4, 0x18, 0x3f, 0x06, 0xd2, 0xd5, 0xee,
  0xe5, 0xfb, 0x1a, 0x23, 0xc9, 0x3d, 0x24, 0xfb, 0x59, 0xef, 0x0f, 0xe5,
  0x0f, 0x5f, 0xce, 0xd2, 0xd8, 0x2e, 0xe4, 0x35, 0x35, 0xd9, 0x2e, 0x81,
  0x40, 0xb0, 0x06, 0x43, 0x0d, 0xcc, 0xab, 0xdb, 0x01, 0x1f, 0x18, 0x34,
  0xfd, 0x13, 0xcd, 0x4b, 0x0e, 0xa3, 0xba, 0xaf, 0xdd, 0x69, 0xc7, 0xaf,
  0x68, 0xce, 0x9e, 0x18, 0x18, 0xb7, 0x55, 0x01, 0xf5, 0x6f, 0x5a, 0x2f,
  0x3a, 0x0e, 0x65, 0xa4, 0xe0, 0x4f, 0xa7, 0xc1, 0x4e, 0xbb, 0x69, 0x06,
  0x4f, 0x13, 0xc6, 0xd7, 0x45, 0x12, 0xb8, 0x6c, 0x2b, 0xdb, 0x1f, 0xb0,
  0x21, 0x61, 0xdd, 0xa8, 0x91, 0x48, 0xbb, 0x96, 0x43, 0x81, 0x64, 0x59,
  0x3b, 0x38, 0xf3, 0xc1, 0x50, 0xbb, 0xf4, 0x87, 0x42, 0xb9, 0xf0, 0x71,
  0x49, 0xf1, 0x42, 0x76, 0xb3, 0x07, 0x38, 0xf3, 0x66, 0x95, 0x2a, 0x31,
  0xb2, 0xe9, 0x34, 0xda, 0x72, 0xf4, 0xfc, 0x4c, 0xd8, 0xaa, 0x61, 0x9c,
  0xb6, 0xf9, 0x35, 0xa6, 0x00, 0x32, 0x12, 0xb9, 0x1f, 0xd8, 0x06, 0xdb,
  0xac, 0x81, 0x1d, 0xa7, 0x7f, 0x96, 0x11, 0x20, 0x70, 0x55, 0x4c, 0x67,
  0xc2, 0x35, 0xf7, 0xb7, 0x1b, 0xf9, 0xc1, 0x26, 0x0c, 0x4b, 0x2c, 0xcf,
  0x5d, 0x09, 0x3a, 0x65, 0x8b, 0x23, 0xe0, 0x0c, 0x28, 0xff, 0xfe, 0x46,
  0x51, 0x0d, 0xc0, 0xb4, 0x56, 0x34, 0xa5, 0x61, 0x1e, 0xfc, 0xe6, 0x55,
  0x56, 0x76, 0xac, 0x91, 0xe2, 0x08, 0x59, 0xbd, 0xd5, 0x65, 0x52, 0x49,
  0xfe, 0x37, 0xe2, 0x17, 0x5e, 0xf6, 0x30, 0x93, 0xeb, 0x44, 0x59, 0x1e,
  0xc5, 0x84, 0xbd, 0x88, 0x81, 0xff, 0x07, 0xa2, 0x5f, 0x45, 0x4a, 0x56,
  0x02, 0x0a, 0x29, 0x81, 0x90, 0x64, 0x2f, 0x56, 0x0c, 0xe0, 0xc8, 0xda,
  0x05, 0xca, 0x71, 0x62, 0x67, 0x1b, 0x87, 0xfe, 0xb2, 0x5e, 0x3c, 0xd6,
  0x36, 0x9c, 0xca, 0xfd, 0x04, 0x1c, 0xba, 0x4e, 0x06, 0xee, 0xab, 0x4c,
  0xf1, 0x62, 0x0b, 0x54, 0x70, 0x3c, 0x9e, 0x36, 0x33, 0xca, 0x29, 0x50,
  0xb6, 0x8d, 0xb3, 0x63, 0xfe, 0xbc, 0x56, 0xf6, 0xeb, 0xab, 0x18, 0x40,
  0x9f, 0x0d, 0xe6, 0xd2, 0x5f, 0x37, 0xb9, 0xb5, 0x28, 0xa7, 0xd6, 0xae,
  0x7f, 0x3d, 0x53, 0x92, 0xeb, 0xf0, 0xf7, 0x22, 0x4f, 0xa6, 0xc9, 0x22,
  0x20, 0x0a, 0x3d, 0x1b, 0x54, 0x3f, 0xbc, 0x30, 0x11, 0xe2, 0xe7, 0x65,
  0xb5, 0x52, 0x94, 0x65, 0x20, 0xec, 0xa0, 0xcd, 0x64, 0xf0, 0x99, 0xc1,
  0x5d, 0xc0, 0xaa, 0xda, 0x82, 0x50, 0x14, 0x09, 0x18, 0xc1, 0x01, 0x7f,
  0xdf, 0x72, 0x26, 0x0d, 0x9d, 0xa8, 0xea, 0x5a, 0xb1, 0x8d, 0xd0, 0xe8,
  0x08, 0xa7, 0xcc, 0x5d, 0x21, 0xd4, 0x4d, 0x82, 0x5e, 0x91, 0x8e, 0x37,
  0xd7, 0x2a, 0xe4, 0x16, 0x0a, 0x59, 0x6e, 0x4a, 0x17, 0xcf, 0x04, 0x55,
  0x27, 0x65, 0x05, 0xc2, 0x5a, 0x3f, 0x27, 0xa7, 0x54, 0xe4, 0x11, 0x3a,
  0x99, 0x58, 0xa9, 0x17, 0x50, 0x75, 0x95, 0x8c, 0x28, 0xd0, 0x64, 0xff,
  0x85, 0x2f, 0x93, 0xbd, 0xce, 0x40, 0x6c, 0xad, 0x9e, 0x7f, 0xaf, 0xc2,
  0x1d, 0xc1, 0x0b, 0x24, 0x7d, 0xf1, 0xe8, 0x3d, 0x10, 0x87, 0x3a, 0xea,
  0xab, 0x0b, 0x25, 0xef, 0x0e, 0xa6, 0x3f, 0x4b, 0x46, 0x26, 0x20, 0x0a,
  0x97, 0x3d, 0x79, 0x46, 0x96, 0xbc, 0xdd, 0x94, 0x50, 0xf8, 0x64, 0x13,
  0x49, 0xdd, 0xeb, 0x60, 0x61, 0x21, 0x0c, 0x0f, 0x50, 0x54, 0x07, 0x69,
  0xe3, 0xd6, 0x08, 0x81, 0x2d, 0x98, 0xbf, 0x41, 0x8f, 0x19, 0x0d, 0xd3,
  0x09, 0xa2, 0x08, 0x1d, 0xce, 0x1f, 0x29, 0x3a, 0x15, 0x10, 0x12, 0x2b,
  0xbd, 0xf5, 0xf6, 0x79, 0xa8, 0x13, 0xc1, 0x2f, 0xa8, 0xf2, 0x11, 0xc0,
  0x13, 0xcf, 0x4e, 0x17, 0x61, 0xa3, 0x63, 0x39, 0x26, 0xeb, 0x4f, 0xb9,
  0xbb, 0x31, 0x17, 0x7f, 0xe6, 0x01, 0xf9, 0x30, 0xe7, 0x76, 0x15, 0x8f,
  0x75, 0x5d, 0x24, 0xfa, 0x93, 0xee, 0xe6, 0xf8, 0x9d, 0xce, 0xcc, 0x39,
  0xba, 0xef, 0x65, 0xa2, 0x55, 0xff, 0x02, 0xa1, 0xef, 0x2a, 0x1b, 0xa9,
  0xb6, 0x2a, 0x65, 0x10, 0xa9, 0xf6, 0x45, 0x97, 0x4a, 0xcf, 0xbf, 0x6e,
  0xf5, 0xab, 0x4a, 0xa3, 0x1d, 0x6b, 0x13, 0x3c, 0x4a, 0x44, 0x1c, 0x20,
  0x31, 0x61, 0xe6, 0x25, 0x5d, 0xec, 0xb0, 0x32, 0x4a, 0xa7, 0x52, 0xeb,
  0x4e, 0xbe, 0xfa, 0x85, 0x6a, 0x7c, 0xd0, 0x99, 0x2a, 0xc9, 0x7f, 0x19,
  0xc7, 0x64, 0x3a, 0xb5, 0xe5, 0x30, 0xdb, 0x41, 0x1a, 0x02, 0x2c, 0x07,
  0x42, 0xdc, 0x95, 0xc2, 0xe5, 0xec, 0xd0, 0xd8, 0xa5, 0x06, 0x31, 0xb2,
  0x7f, 0xa2, 0x64, 0xe3, 0xd4, 0x1f, 0x45, 0xcc, 0x6b, 0x08, 0xa5, 0x5a,
  0x6f, 0xe3, 0x96, 0xea, 0xab, 0x3f, 0xfe, 0x6e, 0xc9, 0xd4, 0xa5, 0xec,
  0x04, 0xd5, 0x36, 0x2d, 0xf9, 0xf1, 0x3e, 0x1b, 0x03, 0xf4, 0x13, 0x58,
  0x02, 0x47, 0x6d, 0x20, 0x7f, 0x58, 0x33, 0xb7, 0xbe, 0x0c, 0x37, 0xa5,
  0xbd, 0xae, 0x61, 0xe0, 0xf6, 0x98, 0xa2, 0xeb, 0x0a, 0x73, 0xae, 0xc4,
  0x1c, 0x74, 0xb3, 0x31, 0xdb, 0xf6, 0x0a, 0x3c, 0x4d, 0xad, 0xba, 0xf6,
  0x12, 0xf5, 0xff, 0xff, 0x04, 0x00, 0x00, 0x00, 0x80, 0x00, 0x00, 0x00,
  0x03, 0x00, 0x00, 0x00, 0x01, 0x00, 0x00, 0x00, 0xfd, 0xff, 0xff, 0xff,
  0xff, 0xff, 0xff, 0xff, 0xff, 0xff, 0xff, 0xff, 0xfc, 0xff, 0xff, 0xff,
  0x05, 0x00, 0x00, 0x00, 0xfd, 0xff, 0xff, 0xff, 0x00, 0x00, 0x00, 0x00,
  0xfc, 0xff, 0xff, 0xff, 0xfe, 0xff, 0xff, 0xff, 0xfe, 0xff, 0xff, 0xff,
  0x02, 0x00, 0x00, 0x00, 0xfe, 0xff, 0xff, 0xff, 0xfc, 0xff, 0xff, 0xff,
  0xfc, 0xff, 0xff, 0xff, 0x00, 0x00, 0x00, 0x00, 0xfc, 0xff, 0xff, 0xff,
  0xff, 0xff, 0xff, 0xff, 0xfd, 0xff, 0xff, 0xff, 0xfd, 0xff, 0xff, 0xff,
  0xfd, 0xff, 0xff, 0xff, 0xfc, 0xff, 0xff, 0xff, 0xfb, 0xff, 0xff, 0xff,
  0xfd, 0xff, 0xff, 0xff, 0x04, 0x00, 0x00, 0x00, 0xfe, 0xff, 0xff, 0xff,
  0x03, 0x00, 0x00, 0x00, 0x03, 0x00, 0x00, 0x00, 0x05, 0x00, 0x00, 0x00,
  0x02, 0x00, 0x00, 0x00, 0x03, 0x00, 0x00, 0x00, 0x9e, 0xf5, 0xff, 0xff,
  0x04, 0x00, 0x00, 0x00, 0x00, 0x08, 0x00, 0x00, 0xec, 0xef, 0xa1, 0x18,
  0x29, 0x02, 0x5d, 0xc5, 0xc7, 0x4a, 0xee, 0xa5, 0x23, 0xd9, 0xa3, 0xbf,
  0xf0, 0x81, 0xee, 0xe1, 0x0e, 0xc3, 0x96, 0xcf, 0xcb, 0x5c, 0xc9, 0x2f,
  0x4f, 0x5b, 0x0e, 0x23, 0xb6, 0xd2, 0x73, 0xac, 0x16, 0x7f, 0xd5, 0x59,
  0xf3, 0xe7, 0x50, 0x18, 0x23, 0x28, 0x5a, 0x32, 0x45, 0x60, 0x24, 0x01,
  0x2b, 0x0e, 0x5e, 0x40, 0x24, 0x4e, 0xbf, 0xd2, 0xfa, 0x12, 0x8f, 0xeb,
  0xd5, 0x37, 0x84, 0xac, 0x9c, 0xef, 0x9a, 0x15, 0x9d, 0xcd, 0x52, 0xe0,
  0x26, 0xe7, 0x0c, 0xcc, 0x8f, 0xdb, 0xf8, 0x3d, 0x9a, 0x24, 0x2d, 0xda,
  0x20, 0x26, 0x52, 0x24, 0xaf, 0x7f, 0x4f, 0x02, 0x75, 0xd2, 0x4f, 0xce,
  0x6c, 0x27, 0xbc, 0xb6, 0x7f, 0x43, 0x9a, 0x46, 0x77, 0x7c, 0x23, 0x7c,
  0xc6, 0x87, 0x88, 0x8d, 0x57, 0x07, 0xe6, 0xa8, 0xcf, 0xb4, 0x7e, 0xb0,
  0xe0, 0x8a, 0xf7, 0x69, 0x13, 0x11, 0xff, 0xa7, 0x0e, 0x7f, 0xde, 0xd6,
  0x2d, 0x40, 0xdb, 0xd9, 0xe4, 0x55, 0x07, 0x2b, 0xd1, 0x00, 0x55, 0xee,
  0x5c, 0xe9, 0xe2, 0x4c, 0x98, 0xa3, 0x10, 0xeb, 0xb2, 0xf9, 0x97, 0x6a,
  0xce, 0x63, 0x7b, 0x1f, 0xdf, 0xda, 0x10, 0x81, 0xc8, 0x4f, 0x3b, 0x1d,
  0x63, 0x8f, 0x69, 0x2d, 0x11, 0x7a, 0x8a, 0xff, 0x4b, 0x00, 0x9f, 0xa7,
  0xb9, 0xa7, 0x5e, 0xf1, 0x42, 0xc1, 0x38, 0x23, 0x81, 0x2e, 0x2c, 0xad,
  0x6b, 0xfe, 0x6b, 0x24, 0xc5, 0x20, 0x67, 0x79, 0xdc, 0x45, 0x91, 0x7b,
  0x2b, 0x06, 0x06, 0x1c, 0x16, 0x85, 0x8b, 0xa0, 0xf1, 0xb6, 0x3d, 0xf4,
  0xbb, 0xff, 0x5f, 0x95, 0x13, 0xf2, 0x81, 0x4a, 0xd5, 0xa9, 0x24, 0x0a,
  0x01, 0xd7, 0x3e, 0x60, 0x33, 0x2a, 0xb6, 0xeb, 0x46, 0x2c, 0xd8, 0x33,
  0x3b, 0xb7, 0xd5, 0xf9, 0xc9, 0xdf, 0x0e, 0xc2, 0xd9, 0x2d, 0x22, 0x20,
  0x0e, 0x46, 0x17, 0x38, 0x0f, 0x4c, 0x62, 0x7d, 0x1a, 0xcb, 0xee, 0x4f,
  0x13, 0xfb, 0xc5, 0x00, 0xf6, 0x7f, 0xda, 0xd9, 0x19, 0xf0, 0xc3, 0xd1,
  0xa9, 0xcb, 0xc9, 0x1b, 0x45, 0x04, 0x37, 0x16, 0xa1, 0xfb, 0x7b, 0x2e,
  0x5e, 0x3e, 0xd6, 0x76, 0xba, 0xca, 0x44, 0x1a, 0x36, 0x4b, 0x58, 0xda,
  0x22, 0x95, 0x9a, 0x1a, 0x0b, 0xcf, 0xdb, 0x1d, 0x25, 0xaa, 0x17, 0x81,
  0xa0, 0xb2, 0xca, 0x54, 0xe4, 0x18, 0xc9, 0x18, 0xbb, 0x7f, 0xdd, 0xe3,
  0x24, 0xe9, 0xc5, 0x53, 0xfe, 0x1c, 0xed, 0x4d, 0xbc, 0x53, 0x56, 0x06,
  0xd4, 0x56, 0x1c, 0x38, 0x46, 0x14, 0xdd, 0x21, 0x25, 0xb3, 0x97, 0x49,
  0x25, 0x06, 0x7f, 0xae, 0x2f, 0x53, 0x2c, 0x09, 0x4e, 0xc1, 0xf3, 0x2a,
  0x5a, 0x59, 0x4d, 0x53, 0x4d, 0x05, 0xf5, 0x3d, 0x67, 0xc8, 0x43, 0x23,
  0xca, 0x5a, 0x2f, 0x32, 0xfc, 0x54, 0xf8, 0xd7, 0xbd, 0x8a, 0x81, 0xfd,
  0xc0, 0x56, 0xd3, 0x1e, 0x29, 0xdd, 0xe6, 0x77, 0xf3, 0x32, 0x56, 0x5e,
  0xdb, 0x4b, 0x72, 0x9b, 0x00, 0xaa, 0xa7, 0x5e, 0xae, 0xbc, 0x05, 0xba,
  0x5d, 0xb7, 0xf5, 0x4e, 0x3a, 0xd9, 0x81, 0x00, 0x03, 0xb5, 0x5e, 0xcb,
  0x95, 0xce, 0x31, 0xec, 0x35, 0x00, 0xd2, 0xa1, 0x5b, 0x91, 0x16, 0x18,
  0xd8, 0xeb, 0x01, 0x25, 0xa1, 0xf6, 0xe3, 0x57, 0xf5, 0x07, 0x2b, 0xb6,
  0x67, 0x1f, 0x71, 0x79, 0x2c, 0x95, 0x01, 0x1f, 0x78, 0xcd, 0x42, 0x21,
  0x1d, 0xaa, 0x7f, 0xfe, 0x54, 0x2d, 0x81, 0x97, 0x02, 0xe6, 0x17, 0x9f,
  0xe2, 0x42, 0x24, 0x14, 0xdb, 0xa7, 0xbd, 0x2a, 0x77, 0xc1, 0xef, 0x23,
  0x2c, 0x9f, 0xe0, 0xfb, 0xe0, 0x1d, 0x0f, 0xda, 0x43, 0xa6, 0xb3, 0x3c,
  0x82, 0x68, 0x4b, 0x88, 0xa7, 0xc7, 0x44, 0xab, 0x0a, 0x20, 0x26, 0xd8,
  0x81, 0x44, 0xc4, 0x2a, 0xd3, 0x41, 0xb0, 0x0b, 0xc7, 0xc8, 0x09, 0x22,
  0xf9, 0xc9, 0xb5, 0x5d, 0xd0, 0x5b, 0x08, 0x2a, 0x0c, 0x23, 0xa2, 0x3d,
  0x12, 0x26, 0x81, 0xce, 0xc5, 0xbb, 0x26, 0x9d, 0x46, 0xb3, 0x08, 0xab,
  0xa7, 0xce, 0xf5, 0x8a, 0x5e, 0xe7, 0xe1, 0xa0, 0xdb, 0x16, 0x61, 0xbc,
  0x82, 0xa3, 0x40, 0xa3, 0xa7, 0x4e, 0xb8, 0x05, 0x08, 0x7f, 0x07, 0xf2,
  0xe5, 0x5f, 0xcc, 0xea, 0xd0, 0x00, 0xee, 0x9a, 0x1a, 0xf8, 0xe2, 0x61,
  0xc2, 0x07, 0x06, 0xb2, 0xa4, 0x81, 0x63, 0xc6, 0xf6, 0x85, 0xb1, 0x3f,
  0x35, 0x22, 0x1d, 0xf9, 0xe3, 0x29, 0xf0, 0xcd, 0x7e, 0x53, 0x53, 0x90,
  0xc1, 0xc6, 0x7e, 0x5d, 0x19, 0x83, 0x13, 0xc5, 0xdd, 0x0c, 0xa9, 0x6f,
  0x57, 0x63, 0x00, 0x0d, 0x9c, 0x42, 0x60, 0x2d, 0xcd, 0x46, 0xce, 0x41,
  0x24, 0x4d, 0xf9, 0x81, 0xea, 0xdb, 0x43, 0x4a, 0x89, 0x18, 0xf5, 0xe0,
  0x82, 0x98, 0xf8, 0xb1, 0xed, 0x1a, 0x1d, 0xbb, 0x20, 0xd0, 0x38, 0x81,
  0x26, 0xb4, 0x27, 0x05, 0xea, 0xcf, 0xb9, 0x39, 0xdb, 0x24, 0xfd, 0x85,
  0x79, 0x30, 0x4d, 0x53, 0xd4, 0x97, 0x8e, 0x8e, 0x63, 0x37, 0x32, 0xf4,
  0xc6, 0x1a, 0x73, 0xe9, 0xcb, 0x7d, 0xc6, 0xe2, 0x68, 0xba, 0xef, 0xfd,
  0xb6, 0xdd, 0xb5, 0xf3, 0xfb, 0x63, 0xd2, 0xb0, 0xa2, 0x81, 0xff, 0x5f,
  0x02, 0xcc, 0xd2, 0x37, 0x13, 0xc1, 0x81, 0x2e, 0xf9, 0xb4, 0x02, 0xe8,
  0x1d, 0xcc, 0xda, 0xf7, 0x19, 0xf1, 0x02, 0xd0, 0x00, 0xd8, 0xcb, 0x1e,
  0x01, 0x05, 0xde, 0xf4, 0x1d, 0x41, 0x2b, 0x15, 0x25, 0x3f, 0x24, 0x1a,
  0x4c, 0x8d, 0xfa, 0x2e, 0x24, 0x97, 0x17, 0x1a, 0x75, 0xa9, 0x00, 0x9c,
  0x2b, 0x81, 0x37, 0xfe, 0xb2, 0x1c, 0x7a, 0xa6, 0x60, 0x64, 0xcd, 0x81,
  0x75, 0xf5, 0xb5, 0x2a, 0xda, 0xfe, 0xc2, 0xd4, 0x67, 0x85, 0x30, 0x5d,
  0x2f, 0x12, 0x52, 0x0e, 0xa9, 0x81, 0xc9, 0xe5, 0xaa, 0x24, 0x2a, 0x1f,
  0x89, 0x7a, 0xda, 0x6b, 0x09, 0xb3, 0x9e, 0xaa, 0xbe, 0x03, 0x07, 0x50,
  0x90, 0x1f, 0xcb, 0xeb, 0x32, 0x91, 0x41, 0xc1, 0x7f, 0xaa, 0xd6, 0x43,
  0xb4, 0x6b, 0xed, 0xec, 0x28, 0xe9, 0xcd, 0x0a, 0xf2, 0x8f, 0x73, 0xe6,
  0x63, 0x6a, 0xac, 0x89, 0xd0, 0xc1, 0xc1, 0xfe, 0x7c, 0xf2, 0x07, 0x59,
  0x99, 0xc7, 0x89, 0xd9, 0xab, 0x81, 0x98, 0xce, 0xbd, 0x90, 0x66, 0x2f,
  0x5e, 0x29, 0x19, 0xc6, 0x89, 0x53, 0xa6, 0x85, 0xdc, 0x33, 0xcb, 0xcb,
  0xbe, 0x7a, 0xa0, 0x40, 0x7e, 0x32, 0x78, 0x19, 0xfa, 0x43, 0xe4, 0x85,
  0x7f, 0x68, 0x6d, 0x49, 0x95, 0xd9, 0xc5, 0xd7, 0xe8, 0x84, 0xc7, 0x31,
  0xe9, 0x29, 0xdc, 0x0e, 0x75, 0xad, 0xdc, 0x62, 0x10, 0xd5, 0xf1, 0x41,
  0xd0, 0xfc, 0xd5, 0x4e, 0x26, 0x26, 0x16, 0xd3, 0x7f, 0xd6, 0xd7, 0x04,
  0xae, 0xf8, 0x99, 0x05, 0x6a, 0x62, 0xd2, 0xb4, 0x9a, 0x6a, 0xd0, 0x0f,
  0x2b, 0x1b, 0x16, 0x41, 0xbd, 0x88, 0xa8, 0x3d, 0x5f, 0x9d, 0xba, 0x1a,
  0x7b, 0x52, 0x7b, 0x04, 0x91, 0x11, 0x8a, 0xcc, 0xbd, 0xb4, 0x3f, 0xf9,
  0x15, 0x88, 0xe4, 0xa4, 0xc4, 0x6c, 0x1e, 0xaf, 0xad, 0x7d, 0x97, 0x86,
  0x8c, 0x81, 0xb9, 0xe5, 0xab, 0x26, 0xd5, 0x1b, 0x99, 0x25, 0x9e, 0xbd,
  0x3f, 0x01, 0xfc, 0xd8, 0x55, 0x26, 0xee, 0x18, 0xc8, 0xd6, 0x60, 0x8b,
  0xf8, 0xde, 0x3c, 0x87, 0x7f, 0xdf, 0x5e, 0x34, 0x61, 0x65, 0xd0, 0xf5,
  0xd1, 0xd5, 0x0b, 0xf8, 0xb2, 0xd3, 0x69, 0xcb, 0x8d, 0xb1, 0x84, 0xa0,
  0xa1, 0xe8, 0x7f, 0xd1, 0xbd, 0x65, 0xc1, 0xa7, 0x27, 0x2d, 0xc5, 0x13,
  0x03, 0x75, 0xe4, 0x11, 0xbf, 0x03, 0xec, 0x6e, 0x0a, 0x0b, 0xb1, 0xfb,
  0x07, 0xfd, 0x7f, 0xb6, 0xda, 0xfa, 0xb5, 0xd5, 0x35, 0x0b, 0x0c, 0xee,
  0xd2, 0x19, 0x34, 0x32, 0xcb, 0x04, 0x19, 0xe5, 0x11, 0x15, 0xef, 0x1e,
  0x03, 0x2c, 0xfc, 0x10, 0x13, 0xca, 0x0d, 0x21, 0xe5, 0x21, 0xbd, 0x7a,
  0x41, 0x81, 0x17, 0x00, 0xf5, 0x83, 0x57, 0x6e, 0x23, 0xdf, 0x3f, 0xc2,
  0x12, 0x83, 0x91, 0x1e, 0xe3, 0x4d, 0x0b, 0x0d, 0xd2, 0x75, 0x9e, 0xb2,
  0x48, 0x13, 0x67, 0x23, 0x7d, 0xc0, 0xd1, 0x2f, 0xfd, 0x88, 0x46, 0xdf,
  0x89, 0xc6, 0x19, 0x58, 0xce, 0x0c, 0x22, 0xd1, 0xd6, 0x49, 0x13, 0x14,
  0x1d, 0x7f, 0x5f, 0xa4, 0xdf, 0x2c, 0x03, 0x9d, 0x53, 0x74, 0xbf, 0xc7,
  0x11, 0xc8, 0x4d, 0x2f, 0x3f, 0xec, 0xb6, 0x81, 0x93, 0x47, 0x02, 0xd6,
  0x63, 0xd2, 0x03, 0x58, 0xc0, 0x9e, 0x5a, 0xd8, 0xa1, 0x5c, 0xbb, 0x16,
  0x32, 0x42, 0x7c, 0xbf, 0x60, 0xee, 0xec, 0xc6, 0x66, 0x9f, 0x7f, 0x17,
  0xd0, 0xcc, 0x61, 0x07, 0x4e, 0xe8, 0x79, 0x4d, 0xb4, 0xa3, 0x54, 0xc0,
  0x3a, 0xd1, 0xc2, 0xe9, 0xb7, 0x4a, 0x10, 0x60, 0xd9, 0x62, 0xcc, 0x18,
  0x9b, 0xe2, 0x32, 0xaf, 0x93, 0x3a, 0x81, 0x34, 0xac, 0x67, 0x56, 0x0c,
  0x4d, 0xae, 0xc5, 0xa2, 0x34, 0x45, 0x56, 0xf6, 0xc1, 0xb1, 0xf0, 0x87,
  0xb7, 0x4b, 0x19, 0x88, 0xe6, 0xe2, 0xad, 0xce, 0xa0, 0xd2, 0x2a, 0x41,
  0xb8, 0xd7, 0x29, 0x71, 0xdc, 0xe9, 0xf4, 0x29, 0xc9, 0xb3, 0xab, 0x1c,
  0x76, 0x8e, 0x02, 0xe8, 0x39, 0x8f, 0x63, 0x4f, 0x56, 0x2f, 0x8c, 0xb1,
  0xb1, 0xe7, 0x9a, 0x81, 0xe7, 0x8e, 0x43, 0xc6, 0xfd, 0xc0, 0x81, 0xdd,
  0xd9, 0xf8, 0x3e, 0x08, 0xfb, 0xc1, 0xd6, 0x30, 0xe3, 0x13, 0xb4, 0xbe,
  0xc9, 0xab, 0xdb, 0xf4, 0xca, 0xbb, 0x22, 0xaf, 0xc4, 0x34, 0x04, 0x0a,
  0x28, 0x3c, 0xd4, 0x39, 0x04, 0x1c, 0x3f, 0x2a, 0xcb, 0x41, 0x49, 0xba,
  0x3f, 0x55, 0x64, 0x44, 0x08, 0xf8, 0xa7, 0xeb, 0x6a, 0x37, 0xdd, 0x3e,
  0x01, 0x7f, 0x7c, 0xbf, 0x02, 0x35, 0x33, 0xc7, 0x9c, 0x74, 0xac, 0x8e,
  0x03, 0x11, 0x81, 0x0e, 0xd9, 0xda, 0x45, 0xc2, 0x26, 0xe2, 0xd3, 0xf9,
  0xdd, 0xd2, 0xcd, 0x1a, 0x0b, 0x00, 0x15, 0xcd, 0xcb, 0x00, 0xe1, 0xf5,
  0xc5, 0xee, 0x03, 0xfc, 0x23, 0x29, 0x02, 0x06, 0xc0, 0x19, 0xe0, 0xc9,
  0xdb, 0x2a, 0x27, 0xf8, 0x64, 0x3d, 0xcb, 0x5f, 0xfd, 0x2f, 0xed, 0xad,
  0x95, 0xe3, 0xb0, 0xd3, 0xf0, 0xec, 0x1b, 0x64, 0x99, 0x47, 0xff, 0xc4,
  0xdc, 0x12, 0x81, 0x2f, 0xae, 0x4b, 0xa3, 0x79, 0xd7, 0x2d, 0xb3, 0x2e,
  0x27, 0xc7, 0x8d, 0xdb, 0x21, 0x8f, 0x69, 0xbc, 0xaa, 0xb8, 0x79, 0xd7,
  0x3b, 0x67, 0xb8, 0x0b, 0x7d, 0x60, 0x5e, 0x7f, 0x92, 0xe6, 0x10, 0xf3,
  0x5c, 0x40, 0x5f, 0x46, 0x73, 0x69, 0xd4, 0x6e, 0xdf, 0x7f, 0xdf, 0xf3,
  0x6e, 0xd0, 0x5c, 0x64, 0x5b, 0x14, 0x10, 0xb2, 0x54, 0xcf, 0x0f, 0x31,
  0xf9, 0xae, 0xc0, 0xbd, 0xc2, 0x1e, 0xb3, 0x1d, 0xd8, 0x11, 0x81, 0x13,
  0x32, 0xd7, 0xfd, 0x1e, 0xe4, 0xd3, 0xdd, 0xd3, 0xc7, 0x06, 0xfc, 0xe4,
  0x16, 0xad, 0xcf, 0xcf, 0xd6, 0x1c, 0x08, 0x11, 0xe2, 0x05, 0x0f, 0x0d,
  0xec, 0x03, 0xeb, 0xeb, 0xe9, 0x30, 0x7f, 0x66, 0x6c, 0x6b, 0x6d, 0xaf,
  0x79, 0x64, 0x71, 0x33, 0x54, 0x23, 0x38, 0xe9, 0xa8, 0x21, 0x7c, 0x58,
  0x17, 0xfc, 0x52, 0xca, 0x13, 0x22, 0xb5, 0x24, 0x0d, 0x72, 0xdb, 0x60,
  0xf3, 0x6c, 0x81, 0x72, 0x5b, 0xa0, 0x1b, 0xe0, 0x76, 0xd6, 0x3c, 0x91,
  0x38, 0x3c, 0x88, 0xaf, 0xd1, 0x10, 0xdf, 0xf2, 0x05, 0xa8, 0xbc, 0xb6,
  0xb3, 0x87, 0xc0, 0x79, 0xb3, 0x1a, 0x9f, 0x73, 0xb1, 0x9a, 0x7f, 0x07,
  0xed, 0x38, 0xd3, 0x60, 0x99, 0x14, 0xb0, 0x11, 0x1a, 0xc6, 0x5b, 0xdc,
  0x60, 0x43, 0x6d, 0x04, 0x47, 0x50, 0x55, 0x66, 0xaa, 0xda, 0x2e, 0x29,
  0x1e, 0x17, 0x23, 0x1b, 0xc3, 0x20, 0x75, 0xe6, 0x67, 0x7f, 0x0f, 0x1d,
  0x4a, 0xee, 0xab, 0x9d, 0x23, 0xd3, 0x3e, 0x06, 0xfc, 0x0d, 0xfd, 0x0b,
  0x5b, 0x4e, 0xca, 0xf0, 0x36, 0x63, 0xcf, 0xfb, 0x5f, 0x62, 0xd7, 0xef,
  0x4d, 0x6c, 0xce, 0xed, 0x62, 0xed, 0x7f, 0xb5, 0x68, 0x9a, 0x6d, 0x99,
  0x61, 0xf7, 0xf0, 0x15, 0x54, 0x28, 0x9d, 0x39, 0x43, 0xb1, 0x6a, 0xaa,
  0xcd, 0x49, 0x78, 0x58, 0x9e, 0x9f, 0xd3, 0x1f, 0xe5, 0x39, 0x15, 0xec,
  0x76, 0x37, 0xa3, 0x3c, 0x9b, 0x2d, 0x3b, 0x40, 0xfa, 0x26, 0x65, 0x65,
  0x35, 0x5a, 0x3c, 0xe2, 0xfb, 0x7b, 0x86, 0x1f, 0x7a, 0x37, 0xc4, 0x7f,
  0xf2, 0x37, 0x68, 0x02, 0x48, 0x4a, 0x95, 0xa3, 0x24, 0xb6, 0x3b, 0xcf,
  0x1c, 0x29, 0xe0, 0xbf, 0x0c, 0xc7, 0xcf, 0xf4, 0x6f, 0x15, 0x42, 0x81,
  0xb8, 0x28, 0x88, 0xfa, 0xc5, 0x15, 0xa6, 0x10, 0x04, 0x4e, 0xfd, 0x5b,
  0x62, 0x59, 0xe9, 0x6a, 0x91, 0xeb, 0x6e, 0xc3, 0x15, 0x29, 0x96, 0x50,
  0xd0, 0xa7, 0x58, 0x3a, 0xa9, 0xbc, 0x05, 0xe3, 0x0d, 0x6c, 0xd7, 0x44,
  0x4e, 0x81, 0x71, 0xd6, 0x3f, 0x92, 0x8c, 0x6f, 0x04, 0x2b, 0xab, 0x9f,
  0x22, 0x84, 0xe2, 0x2a, 0x12, 0x93, 0x2b, 0xf5, 0x29, 0xe7, 0x99, 0x31,
  0x8e, 0x60, 0xb9, 0xab, 0x50, 0x7b, 0x70, 0x89, 0x07, 0x19, 0xe9, 0x58,
  0x35, 0x81, 0x0c, 0x25, 0x2b, 0xee, 0x7f, 0xf6, 0x36, 0x3f, 0x16, 0x35,
  0x06, 0x25, 0x32, 0xcb, 0x71, 0x3a, 0x3d, 0x0b, 0xce, 0xe9, 0xbc, 0x29,
  0x15, 0x4d, 0x2f, 0x1e, 0xe0, 0xd2, 0x35, 0xc6, 0x2b, 0x69, 0xdd, 0xb4,
  0x70, 0x94, 0xf3, 0x95, 0xe0, 0xd0, 0xe0, 0x3e, 0x7b, 0xe9, 0x6c, 0x6e,
  0x3b, 0xa6, 0x6c, 0xcd, 0xf8, 0x61, 0x81, 0x58, 0xa0, 0x72, 0xbe, 0x2a,
  0xa8, 0x30, 0x23, 0x74, 0x60, 0x9b, 0x0f, 0xa5, 0xb7, 0x41, 0x3b, 0xc6,
  0x49, 0x2d, 0xe7, 0x47, 0x1c, 0xa9, 0x4e, 0x5e, 0xb3, 0x00, 0xd6, 0x67,
  0x93, 0x56, 0xda, 0x3b, 0x6f, 0x34, 0x35, 0x4e, 0xa9, 0xd1, 0x7f, 0xbd,
  0x4c, 0x6f, 0xdc, 0x27, 0x9a, 0x5e, 0x97, 0xb0, 0xa9, 0x36, 0x3a, 0xa0,
  0x9d, 0xef, 0x19, 0xd7, 0x3a, 0x1f, 0x0f, 0xe9, 0x38, 0x81, 0x84, 0xcd,
  0xc7, 0x2c, 0x13, 0x92, 0x5d, 0xc3, 0x70, 0xfa, 0x23, 0x07, 0x6c, 0x7d,
  0x4f, 0x4a, 0x7f, 0x4b, 0xa2, 0x47, 0xf2, 0x10, 0xc0, 0xbe, 0x39, 0x54,
  0xe7, 0x3f, 0x02, 0x3b, 0x59, 0xc8, 0xc4, 0x11, 0xb9, 0x6e, 0x22, 0xc8,
  0xf8, 0xf8, 0x00, 0xdb, 0xef, 0x4f, 0xec, 0x97, 0x68, 0xcc, 0x7f, 0x45,
  0x03, 0x06, 0xe3, 0xce, 0xcb, 0xfd, 0x4c, 0x5d, 0x8e, 0xf2, 0x4e, 0xc4,
  0x54, 0x4f, 0xf4, 0x9a, 0xfb, 0xff, 0x1d, 0x71, 0x21, 0x59, 0x2b, 0xce,
  0x17, 0x47, 0x23, 0x44, 0x30, 0x40, 0x7f, 0x95, 0x30, 0x60, 0xe2, 0x1c,
  0xf5, 0x2e, 0xc0, 0xe7, 0x22, 0xbc, 0xdc, 0x40, 0x28, 0x4c, 0xd8, 0xd5,
  0x31, 0x4e, 0x4d, 0xea, 0xf7, 0x40, 0x20, 0x70, 0x1c, 0x00, 0xd6, 0xe3,
  0x4a, 0xf9, 0x2c, 0xa0, 0x72, 0x10, 0xdd, 0x0e, 0x30, 0x81, 0xc3, 0x72,
  0x1e, 0x56, 0x55, 0xcf, 0x55, 0xb7, 0x23, 0x40, 0x15, 0x65, 0x5f, 0xad,
  0x7a, 0xef, 0xef, 0xe2, 0xbd, 0xe0, 0x6c, 0xb1, 0x06, 0xa8, 0x4a, 0x1f,
  0x26, 0xeb, 0xa7, 0xc0, 0xbe, 0x68, 0x99, 0x36, 0xbc, 0x9a, 0x51, 0x44,
  0x81, 0x81, 0xe1, 0x26, 0x69, 0xb9, 0xf8, 0x3e, 0x9e, 0x6b, 0x8c, 0x21,
  0x8f, 0xa7, 0x1b, 0x95, 0xaa, 0xfd, 0xff, 0xff, 0x04, 0x00, 0x00, 0x00,
  0x00, 0x01, 0x00, 0x00, 0x4d, 0x00, 0x00, 0x00, 0xd2, 0xff, 0xff, 0xff,
  0x22, 0x00, 0x00, 0x00, 0x00, 0x00, 0x00, 0x00, 0xe8, 0xff, 0xff, 0xff,
  0x00, 0x00, 0x00, 0x00, 0xfd, 0xff, 0xff, 0xff, 0x26, 0x00, 0x00, 0x00,
  0xee, 0xff, 0xff, 0xff, 0xf0, 0xff, 0xff, 0xff, 0x07, 0x00, 0x00, 0x00,
  0xfa, 0xff, 0xff, 0xff, 0x03, 0x00, 0x00, 0x00, 0x2b, 0x00, 0x00, 0x00,
  0xf5, 0xff, 0xff, 0xff, 0x19, 0x00, 0x00, 0x00, 0x26, 0x00, 0x00, 0x00,
  0x00, 0x00, 0x00, 0x00, 0x01, 0x00, 0x00, 0x00, 0xea, 0xff, 0xff, 0xff,
  0x00, 0x00, 0x00, 0x00, 0xfe, 0xff, 0xff, 0xff, 0x2d, 0x00, 0x00, 0x00,
  0x00, 0x00, 0x00, 0x00, 0x00, 0x00, 0x00, 0x00, 0x00, 0x00, 0x00, 0x00,
  0x01, 0x00, 0x00, 0x00, 0xf4, 0xff, 0xff, 0xff, 0xde, 0xff, 0xff, 0xff,
  0x00, 0x00, 0x00, 0x00, 0x14, 0x00, 0x00, 0x00, 0x01, 0x00, 0x00, 0x00,
  0xdc, 0xff, 0xff, 0xff, 0x1d, 0x00, 0x00, 0x00, 0x00, 0x00, 0x00, 0x00,
  0x00, 0x00, 0x00, 0x00, 0xe1, 0xff, 0xff, 0xff, 0x17, 0x00, 0x00, 0x00,
  0x00, 0x00, 0x00, 0x00, 0x33, 0x00, 0x00, 0x00, 0xf0, 0xff, 0xff, 0xff,
  0x32, 0x00, 0x00, 0x00, 0x08, 0x00, 0x00, 0x00, 0x00, 0x00, 0x00, 0x00,
  0xdb, 0xff, 0xff, 0xff, 0x32, 0x00, 0x00, 0x00, 0xe0, 0xff, 0xff, 0xff,
  0x33, 0x00, 0x00, 0x00, 0xed, 0xff, 0xff, 0xff, 0xe4, 0xff, 0xff, 0xff,
  0x19, 0x00, 0x00, 0x00, 0x07, 0x00, 0x00, 0x00, 0x37, 0x00, 0x00, 0x00,
  0x05, 0x00, 0x00, 0x00, 0xf9, 0xff, 0xff, 0xff, 0xec, 0xff, 0xff, 0xff,
  0x0c, 0x00, 0x00, 0x00, 0xcf, 0xff, 0xff, 0xff, 0x0c, 0x00, 0x00, 0x00,
  0xf6, 0xff, 0xff, 0xff, 0xf6, 0xff, 0xff, 0xff, 0xe4, 0xff, 0xff, 0xff,
  0xfc, 0xff, 0xff, 0xff, 0xf6, 0xff, 0xff, 0xff, 0xb6, 0xfe, 0xff, 0xff,
  0x04, 0x00, 0x00, 0x00, 0x80, 0x00, 0x00, 0x00, 0x81, 0x41, 0xd9, 0xb3,
  0x63, 0x9a, 0x74, 0xe1, 0x40, 0x69, 0x6a, 0xee, 0xa0, 0xb0, 0x29, 0xd6,
  0xae, 0xa8, 0xa5, 0x51, 0x00, 0xcc, 0xe1, 0x6d, 0xcc, 0xe0, 0xca, 0x1c,
  0xde, 0xfd, 0x35, 0xa2, 0x65, 0xb1, 0x54, 0xc7, 0x57, 0xb6, 0xbe, 0x86,
  0x21, 0x83, 0x18, 0xb8, 0x2d, 0x54, 0x5f, 0x41, 0xfd, 0xb6, 0x22, 0x93,
  0xa1, 0xb2, 0x6e, 0xc4, 0x01, 0xd9, 0x99, 0x69, 0x0e, 0xd8, 0x1c, 0x50,
  0x3e, 0x28, 0x1f, 0x63, 0xfe, 0xb3, 0xa4, 0x35, 0xe6, 0xae, 0x66, 0x8f,
  0x38, 0x77, 0xda, 0x18, 0x0b, 0x36, 0x56, 0xc9, 0x14, 0x8e, 0x37, 0xd4,
  0x81, 0x74, 0x46, 0x8c, 0xd7, 0xe1, 0x68, 0x59, 0x59, 0x4b, 0xb3, 0xce,
  0x46, 0x32, 0x9e, 0x0b, 0xbd, 0x05, 0x18, 0xbc, 0x0c, 0x7b, 0x31, 0x7a,
  0x98, 0x85, 0x5b, 0x6f, 0x1f, 0x6b, 0xaa, 0x8b, 0x22, 0xb9, 0x3c, 0x8c,
  0xc3, 0xcc, 0xa9, 0x45, 0x42, 0xff, 0xff, 0xff, 0x04, 0x00, 0x00, 0x00,
  0x08, 0x00, 0x00, 0x00, 0x70, 0xfe, 0xff, 0xff, 0xa7, 0x01, 0x00, 0x00,
  0x56, 0xff, 0xff, 0xff, 0x04, 0x00, 0x00, 0x00, 0x08, 0x00, 0x00, 0x00,
  0x01, 0x00, 0x00, 0x00, 0x02, 0x00, 0x00, 0x00, 0x80, 0xea, 0xff, 0xff,
  0x84, 0xea, 0xff, 0xff, 0x0f, 0x00, 0x00, 0x00, 0x4d, 0x4c, 0x49, 0x52,
  0x20, 0x43, 0x6f, 0x6e, 0x76, 0x65, 0x72, 0x74, 0x65, 0x64, 0x2e, 0x00,
  0x01, 0x00, 0x00, 0x00, 0x14, 0x00, 0x00, 0x00, 0x00, 0x00, 0x0e, 0x00,
  0x18, 0x00, 0x14, 0x00, 0x10, 0x00, 0x0c, 0x00, 0x08, 0x00, 0x04, 0x00,
  0x0e, 0x00, 0x00, 0x00, 0x14, 0x00, 0x00, 0x00, 0x1c, 0x00, 0x00, 0x00,
  0x44, 0x02, 0x00, 0x00, 0x48, 0x02, 0x00, 0x00, 0x4c, 0x02, 0x00, 0x00,
  0x04, 0x00, 0x00, 0x00, 0x6d, 0x61, 0x69, 0x6e, 0x00, 0x00, 0x00, 0x00,
  0x08, 0x00, 0x00, 0x00, 0xe4, 0x01, 0x00, 0x00, 0x80, 0x01, 0x00, 0x00,
  0x34, 0x01, 0x00, 0x00, 0xf0, 0x00, 0x00, 0x00, 0xbc, 0x00, 0x00, 0x00,
  0x78, 0x00, 0x00, 0x00, 0x40, 0x00, 0x00, 0x00, 0x04, 0x00, 0x00, 0x00,
  0xaa, 0xfe, 0xff, 0xff, 0x1c, 0x00, 0x00, 0x00, 0x00, 0x00, 0x00, 0x09,
  0x1c, 0x00, 0x00, 0x00, 0x20, 0x00, 0x00, 0x00, 0x04, 0x00, 0x00, 0x00,
  0x00, 0x00, 0x06, 0x00, 0x08, 0x00, 0x04, 0x00, 0x06, 0x00, 0x00, 0x00,
  0x00, 0x00, 0x80, 0x3f, 0x01, 0x00, 0x00, 0x00, 0x11, 0x00, 0x00, 0x00,
  0x01, 0x00, 0x00, 0x00, 0x10, 0x00, 0x00, 0x00, 0xe2, 0xfe, 0xff, 0xff,
  0x14, 0x00, 0x00, 0x00, 0x00, 0x00, 0x00, 0x08, 0x10, 0x00, 0x00, 0x00,
  0x14, 0x00, 0x00, 0x00, 0x03, 0x00, 0x00, 0x00, 0x4c, 0xeb, 0xff, 0xff,
  0x01, 0x00, 0x00, 0x00, 0x10, 0x00, 0x00, 0x00, 0x03, 0x00, 0x00, 0x00,
  0x0f, 0x00, 0x00, 0x00, 0x03, 0x00, 0x00, 0x00, 0x02, 0x00, 0x00, 0x00,
  0x16, 0xff, 0xff, 0xff, 0x1c, 0x00, 0x00, 0x00, 0x00, 0x00, 0x00, 0x08,
  0x1c, 0x00, 0x00, 0x00, 0x20, 0x00, 0x00, 0x00, 0x03, 0x00, 0x00, 0x00,
  0x00, 0x00, 0x06, 0x00, 0x08, 0x00, 0x07, 0x00, 0x06, 0x00, 0x00, 0x00,
  0x00, 0x00, 0x00, 0x01, 0x01, 0x00, 0x00, 0x00, 0x0f, 0x00, 0x00, 0x00,
  0x03, 0x00, 0x00, 0x00, 0x0e, 0x00, 0x00, 0x00, 0x05, 0x00, 0x00, 0x00,
  0x04, 0x00, 0x00, 0x00, 0x56, 0xff, 0xff, 0xff, 0x14, 0x00, 0x00, 0x00,
  0x00, 0x00, 0x00, 0x1b, 0x10, 0x00, 0x00, 0x00, 0x14, 0x00, 0x00, 0x00,
  0x02, 0x00, 0x00, 0x00, 0xc0, 0xeb, 0xff, 0xff, 0x01, 0x00, 0x00, 0x00,
  0x0e, 0x00, 0x00, 0x00, 0x02, 0x00, 0x00, 0x00, 0x0d, 0x00, 0x00, 0x00,
  0x01, 0x00, 0x00, 0x00, 0x86, 0xff, 0xff, 0xff, 0x14, 0x00, 0x00, 0x00,
  0x00, 0x00, 0x00, 0x05, 0x24, 0x00, 0x00, 0x00, 0x28, 0x00, 0x00, 0x00,
  0x01, 0x00, 0x00, 0x00, 0x76, 0xff, 0xff, 0xff, 0x02, 0x00, 0x00, 0x00,
  0x02, 0x00, 0x00, 0x00, 0x02, 0x00, 0x00, 0x00, 0x02, 0x00, 0x00, 0x00,
  0x00, 0x00, 0x00, 0x01, 0x01, 0x00, 0x00, 0x00, 0x0d, 0x00, 0x00, 0x00,
  0x01, 0x00, 0x00, 0x00, 0x0c, 0x00, 0x00, 0x00, 0x66, 0xff, 0xff, 0xff,
  0x10, 0x00, 0x00, 0x00, 0x00, 0x00, 0x00, 0x01, 0x14, 0x00, 0x00, 0x00,
  0x18, 0x00, 0x00, 0x00, 0x56, 0xff, 0xff, 0xff, 0x01, 0x00, 0x00, 0x00,
  0x01, 0x00, 0x00, 0x00, 0x01, 0x00, 0x00, 0x00, 0x0c, 0x00, 0x00, 0x00,
  0x03, 0x00, 0x00, 0x00, 0x0b, 0x00, 0x00, 0x00, 0x07, 0x00, 0x00, 0x00,
  0x06, 0x00, 0x00, 0x00, 0x00, 0x00, 0x0e, 0x00, 0x1a, 0x00, 0x14, 0x00,
  0x10, 0x00, 0x0c, 0x00, 0x0b, 0x00, 0x04, 0x00, 0x0e, 0x00, 0x00, 0x00,
  0x24, 0x00, 0x00, 0x00, 0x00, 0x00, 0x00, 0x05, 0x34, 0x00, 0x00, 0x00,
  0x38, 0x00, 0x00, 0x00, 0x01, 0x00, 0x00, 0x00, 0x00, 0x00, 0x0e, 0x00,
  0x18, 0x00, 0x17, 0x00, 0x10, 0x00, 0x0c, 0x00, 0x08, 0x00, 0x04, 0x00,
  0x0e, 0x00, 0x00, 0x00, 0x02, 0x00, 0x00, 0x00, 0x02, 0x00, 0x00, 0x00,
  0x02, 0x00, 0x00, 0x00, 0x02, 0x00, 0x00, 0x00, 0x00, 0x00, 0x00, 0x01,
  0x01, 0x00, 0x00, 0x00, 0x0b, 0x00, 0x00, 0x00, 0x01, 0x00, 0x00, 0x00,
  0x0a, 0x00, 0x00, 0x00, 0x00, 0x00, 0x0e, 0x00, 0x16, 0x00, 0x00, 0x00,
  0x10, 0x00, 0x0c, 0x00, 0x0b, 0x00, 0x04, 0x00, 0x0e, 0x00, 0x00, 0x00,
  0x1c, 0x00, 0x00, 0x00, 0x00, 0x00, 0x00, 0x01, 0x20, 0x00, 0x00, 0x00,
  0x24, 0x00, 0x00, 0x00, 0x00, 0x00, 0x0a, 0x00, 0x0c, 0x00, 0x00, 0x00,
  0x08, 0x00, 0x04, 0x00, 0x0a, 0x00, 0x00, 0x00, 0x01, 0x00, 0x00, 0x00,
  0x01, 0x00, 0x00, 0x00, 0x01, 0x00, 0x00, 0x00, 0x0a, 0x00, 0x00, 0x00,
  0x03, 0x00, 0x00, 0x00, 0x00, 0x00, 0x00, 0x00, 0x09, 0x00, 0x00, 0x00,
  0x08, 0x00, 0x00, 0x00, 0x01, 0x00, 0x00, 0x00, 0x11, 0x00, 0x00, 0x00,
  0x01, 0x00, 0x00, 0x00, 0x00, 0x00, 0x00, 0x00, 0x12, 0x00, 0x00, 0x00,
  0x24, 0x13, 0x00, 0x00, 0xc8, 0x12, 0x00, 0x00, 0x40, 0x12, 0x00, 0x00,
  0xcc, 0x11, 0x00, 0x00, 0x78, 0x0e, 0x00, 0x00, 0x1c, 0x0b, 0x00, 0x00,
  0x48, 0x09, 0x00, 0x00, 0x64, 0x07, 0x00, 0x00, 0x50, 0x06, 0x00, 0x00,
  0x2c, 0x05, 0x00, 0x00, 0x78, 0x04, 0x00, 0x00, 0xdc, 0x03, 0x00, 0x00,
  0x08, 0x03, 0x00, 0x00, 0x6c, 0x02, 0x00, 0x00, 0xd8, 0x01, 0x00, 0x00,
  0x24, 0x01, 0x00, 0x00, 0x80, 0x00, 0x00, 0x00, 0x04, 0x00, 0x00, 0x00,
  0x3a, 0xed, 0xff, 0xff, 0x00, 0x00, 0x00, 0x01, 0x18, 0x00, 0x00, 0x00,
  0x20, 0x00, 0x00, 0x00, 0x3c, 0x00, 0x00, 0x00, 0x12, 0x00, 0x00, 0x00,
  0x00, 0x00, 0x00, 0x09, 0x50, 0x00, 0x00, 0x00, 0x02, 0x00, 0x00, 0x00,
  0xff, 0xff, 0xff, 0xff, 0x02, 0x00, 0x00, 0x00, 0x1c, 0xed, 0xff, 0xff,
  0x08, 0x00, 0x00, 0x00, 0x10, 0x00, 0x00, 0x00, 0x01, 0x00, 0x00, 0x00,
  0x80, 0xff, 0xff, 0xff, 0xff, 0xff, 0xff, 0xff, 0x01, 0x00, 0x00, 0x00,
  0x00, 0x00, 0x80, 0x3b, 0x1b, 0x00, 0x00, 0x00, 0x53, 0x74, 0x61, 0x74,
  0x65, 0x66, 0x75, 0x6c, 0x50, 0x61, 0x72, 0x74, 0x69, 0x74, 0x69, 0x6f,
  0x6e, 0x65, 0x64, 0x43, 0x61, 0x6c, 0x6c, 0x5f, 0x31, 0x3a, 0x30, 0x00,
  0x02, 0x00, 0x00, 0x00, 0x01, 0x00, 0x00, 0x00, 0x02, 0x00, 0x00, 0x00,
  0xb2, 0xed, 0xff, 0xff, 0x00, 0x00, 0x00, 0x01, 0x18, 0x00, 0x00, 0x00,
  0x20, 0x00, 0x00, 0x00, 0x40, 0x00, 0x00, 0x00, 0x11, 0x00, 0x00, 0x00,
  0x00, 0x00, 0x00, 0x09, 0x78, 0x00, 0x00, 0x00, 0x02, 0x00, 0x00, 0x00,
  0xff, 0xff, 0xff, 0xff, 0x02, 0x00, 0x00, 0x00, 0x94, 0xed, 0xff, 0xff,
  0x08, 0x00, 0x00, 0x00, 0x14, 0x00, 0x00, 0x00, 0x01, 0x00, 0x00, 0x00,
  0xd8, 0xff, 0xff, 0xff, 0xff, 0xff, 0xff, 0xff, 0x00, 0x00, 0x00, 0x00,
  0x01, 0x00, 0x00, 0x00, 0x28, 0xb3, 0xa7, 0x3e, 0x3c, 0x00, 0x00, 0x00,
  0x73, 0x65, 0x71, 0x75, 0x65, 0x6e, 0x74, 0x69, 0x61, 0x6c, 0x5f, 0x31,
  0x2f, 0x64, 0x65, 0x6e, 0x73, 0x65, 0x5f, 0x31, 0x5f, 0x32, 0x2f, 0x4d,
  0x61, 0x74, 0x4d, 0x75, 0x6c, 0x3b, 0x73, 0x65, 0x71, 0x75, 0x65, 0x6e,
  0x74, 0x69, 0x61, 0x6c, 0x5f, 0x31, 0x2f, 0x64, 0x65, 0x6e, 0x73, 0x65,
  0x5f, 0x31, 0x5f, 0x32, 0x2f, 0x42, 0x69, 0x61, 0x73, 0x41, 0x64, 0x64,
  0x00, 0x00, 0x00, 0x00, 0x02, 0x00, 0x00, 0x00, 0x01, 0x00, 0x00, 0x00,
  0x02, 0x00, 0x00, 0x00, 0x52, 0xee, 0xff, 0xff, 0x00, 0x00, 0x00, 0x01,
  0x18, 0x00, 0x00, 0x00, 0x20, 0x00, 0x00, 0x00, 0x3c, 0x00, 0x00, 0x00,
  0x10, 0x00, 0x00, 0x00, 0x00, 0x00, 0x00, 0x09, 0x88, 0x00, 0x00, 0x00,
  0x02, 0x00, 0x00, 0x00, 0xff, 0xff, 0xff, 0xff, 0x40, 0x00, 0x00, 0x00,
  0x34, 0xee, 0xff, 0xff, 0x08, 0x00, 0x00, 0x00, 0x10, 0x00, 0x00, 0x00,
  0x01, 0x00, 0x00, 0x00, 0x80, 0xff, 0xff, 0xff, 0xff, 0xff, 0xff, 0xff,
  0x01, 0x00, 0x00, 0x00, 0xbc, 0xd1, 0x03, 0x3f, 0x52, 0x00, 0x00, 0x00,
  0x73, 0x65, 0x71, 0x75, 0x65, 0x6e, 0x74, 0x69, 0x61, 0x6c, 0x5f, 0x31,
  0x2f, 0x64, 0x65, 0x6e, 0x73, 0x65, 0x5f, 0x31, 0x2f, 0x4d, 0x61, 0x74,
  0x4d, 0x75, 0x6c, 0x3b, 0x73, 0x65, 0x71, 0x75, 0x65, 0x6e, 0x74, 0x69,
  0x61, 0x6c, 0x5f, 0x31, 0x2f, 0x64, 0x65, 0x6e, 0x73, 0x65, 0x5f, 0x31,
  0x2f, 0x52, 0x65, 0x6c, 0x75, 0x3b, 0x73, 0x65, 0x71, 0x75, 0x65, 0x6e,
  0x74, 0x69, 0x61, 0x6c, 0x5f, 0x31, 0x2f, 0x64, 0x65, 0x6e, 0x73, 0x65,
  0x5f, 0x31, 0x2f, 0x42, 0x69, 0x61, 0x73, 0x41, 0x64, 0x64, 0x00, 0x00,
  0x02, 0x00, 0x00, 0x00, 0x01, 0x00, 0x00, 0x00, 0x40, 0x00, 0x00, 0x00,
  0x02, 0xef, 0xff, 0xff, 0x00, 0x00, 0x00, 0x01, 0x18, 0x00, 0x00, 0x00,
  0x20, 0x00, 0x00, 0x00, 0x40, 0x00, 0x00, 0x00, 0x0f, 0x00, 0x00, 0x00,
  0x00, 0x00, 0x00, 0x09, 0x68, 0x00, 0x00, 0x00, 0x02, 0x00, 0x00, 0x00,
  0xff, 0xff, 0xff, 0xff, 0x20, 0x00, 0x00, 0x00, 0xe4, 0xee, 0xff, 0xff,
  0x08, 0x00, 0x00, 0x00, 0x14, 0x00, 0x00, 0x00, 0x01, 0x00, 0x00, 0x00,
  0xe2, 0xff, 0xff, 0xff, 0xff, 0xff, 0xff, 0xff, 0x00, 0x00, 0x00, 0x00,
  0x01, 0x00, 0x00, 0x00, 0xa3, 0x28, 0x5d, 0x40, 0x2c, 0x00, 0x00, 0x00,
  0x73, 0x65, 0x71, 0x75, 0x65, 0x6e, 0x74, 0x69, 0x61, 0x6c, 0x5f, 0x31,
  0x2f, 0x67, 0x6c, 0x6f, 0x62, 0x61, 0x6c, 0x5f, 0x61, 0x76, 0x65, 0x72,
  0x61, 0x67, 0x65, 0x5f, 0x70, 0x6f, 0x6f, 0x6c, 0x69, 0x6e, 0x67, 0x32,
  0x64, 0x5f, 0x31, 0x2f, 0x4d, 0x65, 0x61, 0x6e, 0x00, 0x00, 0x00, 0x00,
  0x02, 0x00, 0x00, 0x00, 0x01, 0x00, 0x00, 0x00, 0x20, 0x00, 0x00, 0x00,
  0x92, 0xef, 0xff, 0xff, 0x00, 0x00, 0x00, 0x01, 0x18, 0x00, 0x00, 0x00,
  0x28, 0x00, 0x00, 0x00, 0x44, 0x00, 0x00, 0x00, 0x0e, 0x00, 0x00, 0x00,
  0x00, 0x00, 0x00, 0x09, 0x68, 0x00, 0x00, 0x00, 0x04, 0x00, 0x00, 0x00,
  0xff, 0xff, 0xff, 0xff, 0x10, 0x00, 0x00, 0x00, 0x05, 0x00, 0x00, 0x00,
  0x20, 0x00, 0x00, 0x00, 0x7c, 0xef, 0xff, 0xff, 0x08, 0x00, 0x00, 0x00,
  0x10, 0x00, 0x00, 0x00, 0x01, 0x00, 0x00, 0x00, 0x0d, 0x00, 0x00, 0x00,
  0x00, 0x00, 0x00, 0x00, 0x01, 0x00, 0x00, 0x00, 0x37, 0x03, 0x03, 0x42,
  0x28, 0x00, 0x00, 0x00, 0x73, 0x65, 0x71, 0x75, 0x65, 0x6e, 0x74, 0x69,
  0x61, 0x6c, 0x5f, 0x31, 0x2f, 0x6d, 0x61, 0x78, 0x5f, 0x70, 0x6f, 0x6f,
  0x6c, 0x69, 0x6e, 0x67, 0x32, 0x64, 0x5f, 0x31, 0x5f, 0x32, 0x2f, 0x4d,
  0x61, 0x78, 0x50, 0x6f, 0x6f, 0x6c, 0x32, 0x64, 0x00, 0x00, 0x00, 0x00,
  0x04, 0x00, 0x00, 0x00, 0x01, 0x00, 0x00, 0x00, 0x10, 0x00, 0x00, 0x00,
  0x05, 0x00, 0x00, 0x00, 0x20, 0x00, 0x00, 0x00, 0x2a, 0xf0, 0xff, 0xff,
  0x00, 0x00, 0x00, 0x01, 0x18, 0x00, 0x00, 0x00, 0x28, 0x00, 0x00, 0x00,
  0x44, 0x00, 0x00, 0x00, 0x0d, 0x00, 0x00, 0x00, 0x00, 0x00, 0x00, 0x09,
  0xa0, 0x00, 0x00, 0x00, 0x04, 0x00, 0x00, 0x00, 0xff, 0xff, 0xff, 0xff,
  0x20, 0x00, 0x00, 0x00, 0x0a, 0x00, 0x00, 0x00, 0x20, 0x00, 0x00, 0x00,
  0x14, 0xf0, 0xff, 0xff, 0x08, 0x00, 0x00, 0x00, 0x10, 0x00, 0x00, 0x00,
  0x01, 0x00, 0x00, 0x00, 0x0d, 0x00, 0x00, 0x00, 0x00, 0x00, 0x00, 0x00,
  0x01, 0x00, 0x00, 0x00, 0x37, 0x03, 0x03, 0x42, 0x63, 0x00, 0x00, 0x00,
  0x73, 0x65, 0x71, 0x75, 0x65, 0x6e, 0x74, 0x69, 0x61, 0x6c, 0x5f, 0x31,
  0x2f, 0x63, 0x6f, 0x6e, 0x76, 0x32, 0x64, 0x5f, 0x31, 0x5f, 0x32, 0x2f,
  0x42, 0x69, 0x61, 0x73, 0x41, 0x64, 0x64, 0x3b, 0x73, 0x65, 0x71, 0x75,
  0x65, 0x6e, 0x74, 0x69, 0x61, 0x6c, 0x5f, 0x31, 0x2f, 0x63, 0x6f, 0x6e,
  0x76, 0x32, 0x64, 0x5f, 0x31, 0x5f, 0x32, 0x2f, 0x63, 0x6f, 0x6e, 0x76,
  0x6f, 0x6c, 0x75, 0x74, 0x69, 0x6f, 0x6e, 0x3b, 0x73, 0x65, 0x71, 0x75,
  0x65, 0x6e, 0x74, 0x69, 0x61, 0x6c, 0x5f, 0x31, 0x2f, 0x63, 0x6f, 0x6e,
  0x76, 0x32, 0x64, 0x5f, 0x31, 0x5f, 0x32, 0x2f, 0x53, 0x71, 0x75, 0x65,
  0x65, 0x7a, 0x65, 0x00, 0x04, 0x00, 0x00, 0x00, 0x01, 0x00, 0x00, 0x00,
  0x20, 0x00, 0x00, 0x00, 0x0a, 0x00, 0x00, 0x00, 0x20, 0x00, 0x00, 0x00,
  0xfa, 0xf0, 0xff, 0xff, 0x00, 0x00, 0x00, 0x01, 0x18, 0x00, 0x00, 0x00,
  0x28, 0x00, 0x00, 0x00, 0x48, 0x00, 0x00, 0x00, 0x0c, 0x00, 0x00, 0x00,
  0x00, 0x00, 0x00, 0x09, 0x68, 0x00, 0x00, 0x00, 0x04, 0x00, 0x00, 0x00,
  0xff, 0xff, 0xff, 0xff, 0x20, 0x00, 0x00, 0x00, 0x0a, 0x00, 0x00, 0x00,
  0x10, 0x00, 0x00, 0x00, 0xe4, 0xf0, 0xff, 0xff, 0x08, 0x00, 0x00, 0x00,
  0x14, 0x00, 0x00, 0x00, 0x01, 0x00, 0x00, 0x00, 0x01, 0x00, 0x00, 0x00,
  0x00, 0x00, 0x00, 0x00, 0x00, 0x00, 0x00, 0x00, 0x01, 0x00, 0x00, 0x00,
  0x94, 0xe7, 0x3f, 0x42, 0x26, 0x00, 0x00, 0x00, 0x73, 0x65, 0x71, 0x75,
  0x65, 0x6e, 0x74, 0x69, 0x61, 0x6c, 0x5f, 0x31, 0x2f, 0x6d, 0x61, 0x78,
  0x5f, 0x70, 0x6f, 0x6f, 0x6c, 0x69, 0x6e, 0x67, 0x32, 0x64, 0x5f, 0x31,
  0x2f, 0x4d, 0x61, 0x78, 0x50, 0x6f, 0x6f, 0x6c, 0x32, 0x64, 0x00, 0x00,
  0x04, 0x00, 0x00, 0x00, 0x01, 0x00, 0x00, 0x00, 0x20, 0x00, 0x00, 0x00,
  0x0a, 0x00, 0x00, 0x00, 0x10, 0x00, 0x00, 0x00, 0x92, 0xf1, 0xff, 0xff,
  0x00, 0x00, 0x00, 0x01, 0x18, 0x00, 0x00, 0x00, 0x28, 0x00, 0x00, 0x00,
  0x44, 0x00, 0x00, 0x00, 0x0b, 0x00, 0x00, 0x00, 0x00, 0x00, 0x00, 0x09,
  0x80, 0x00, 0x00, 0x00, 0x04, 0x00, 0x00, 0x00, 0xff, 0xff, 0xff, 0xff,
  0x40, 0x00, 0x00, 0x00, 0x14, 0x00, 0x00, 0x00, 0x10, 0x00, 0x00, 0x00,
  0x7c, 0xf1, 0xff, 0xff, 0x08, 0x00, 0x00, 0x00, 0x10, 0x00, 0x00, 0x00,
  0x01, 0x00, 0x00, 0x00, 0x01, 0x00, 0x00, 0x00, 0x00, 0x00, 0x00, 0x00,
  0x01, 0x00, 0x00, 0x00, 0x94, 0xe7, 0x3f, 0x42, 0x41, 0x00, 0x00, 0x00,
  0x73, 0x65, 0x71, 0x75, 0x65, 0x6e, 0x74, 0x69, 0x61, 0x6c, 0x5f, 0x31,
  0x2f, 0x63, 0x6f, 0x6e, 0x76, 0x32, 0x64, 0x5f, 0x31, 0x2f, 0x42, 0x69,
  0x61, 0x73, 0x41, 0x64, 0x64, 0x3b, 0x73, 0x65, 0x71, 0x75, 0x65, 0x6e,
  0x74, 0x69, 0x61, 0x6c, 0x5f, 0x31, 0x2f, 0x63, 0x6f, 0x6e, 0x76, 0x32,
  0x64, 0x5f, 0x31, 0x2f, 0x63, 0x6f, 0x6e, 0x76, 0x6f, 0x6c, 0x75, 0x74,
  0x69, 0x6f, 0x6e, 0x3b, 0x31, 0x00, 0x00, 0x00, 0x04, 0x00, 0x00, 0x00,
  0x01, 0x00, 0x00, 0x00, 0x40, 0x00, 0x00, 0x00, 0x14, 0x00, 0x00, 0x00,
  0x10, 0x00, 0x00, 0x00, 0x9a, 0xf2, 0xff, 0xff, 0x00, 0x00, 0x00, 0x01,
  0x14, 0x00, 0x00, 0x00, 0xe8, 0x00, 0x00, 0x00, 0x0a, 0x00, 0x00, 0x00,
  0x00, 0x00, 0x00, 0x09, 0xf4, 0x00, 0x00, 0x00, 0x14, 0xf2, 0xff, 0xff,
  0x08, 0x00, 0x00, 0x00, 0x8c, 0x00, 0x00, 0x00, 0x10, 0x00, 0x00, 0x00,
  0x00, 0x00, 0x00, 0x00, 0x00, 0x00, 0x00, 0x00, 0x00, 0x00, 0x00, 0x00,
  0x00, 0x00, 0x00, 0x00, 0x00, 0x00, 0x00, 0x00, 0x00, 0x00, 0x00, 0x00,
  0x00, 0x00, 0x00, 0x00, 0x00, 0x00, 0x00, 0x00, 0x00, 0x00, 0x00, 0x00,
  0x00, 0x00, 0x00, 0x00, 0x00, 0x00, 0x00, 0x00, 0x00, 0x00, 0x00, 0x00,
  0x00, 0x00, 0x00, 0x00, 0x00, 0x00, 0x00, 0x00, 0x00, 0x00, 0x00, 0x00,
  0x00, 0x00, 0x00, 0x00, 0x00, 0x00, 0x00, 0x00, 0x00, 0x00, 0x00, 0x00,
  0x00, 0x00, 0x00, 0x00, 0x00, 0x00, 0x00, 0x00, 0x00, 0x00, 0x00, 0x00,
  0x00, 0x00, 0x00, 0x00, 0x00, 0x00, 0x00, 0x00, 0x00, 0x00, 0x00, 0x00,
  0x00, 0x00, 0x00, 0x00, 0x00, 0x00, 0x00, 0x00, 0x00, 0x00, 0x00, 0x00,
  0x00, 0x00, 0x00, 0x00, 0x00, 0x00, 0x00, 0x00, 0x00, 0x00, 0x00, 0x00,
  0x00, 0x00, 0x00, 0x00, 0x00, 0x00, 0x00, 0x00, 0x00, 0x00, 0x00, 0x00,
  0x10, 0x00, 0x00, 0x00, 0xd3, 0x7d, 0x8f, 0x3a, 0x7b, 0x3a, 0xdc, 0x3a,
  0xb2, 0x33, 0x6d, 0x3a, 0x2f, 0x59, 0x82, 0x3a, 0x54, 0x99, 0xaa, 0x3a,
  0xfa, 0x30, 0x00, 0x3b, 0x86, 0x49, 0x99, 0x3a, 0x39, 0x88, 0x08, 0x3b,
  0x80, 0x5a, 0x03, 0x3b, 0xd3, 0x6f, 0x16, 0x3b, 0x5c, 0x88, 0x12, 0x3b,
  0xf5, 0xd0, 0xa4, 0x3a, 0x47, 0x08, 0xc8, 0x3a, 0x2e, 0x02, 0xd2, 0x3a,
  0xfc, 0x61, 0x07, 0x3b, 0xfc, 0xc1, 0x07, 0x3b, 0x12, 0x00, 0x00, 0x00,
  0x74, 0x66, 0x6c, 0x2e, 0x70, 0x73, 0x65, 0x75, 0x64, 0x6f, 0x5f, 0x71,
  0x63, 0x6f, 0x6e, 0x73, 0x74, 0x37, 0x00, 0x00, 0x04, 0x00, 0x00, 0x00,
  0x10, 0x00, 0x00, 0x00, 0x02, 0x00, 0x00, 0x00, 0x02, 0x00, 0x00, 0x00,
  0x01, 0x00, 0x00, 0x00, 0xba, 0xf3, 0xff, 0xff, 0x00, 0x00, 0x00, 0x01,
  0x14, 0x00, 0x00, 0x00, 0xe4, 0x00, 0x00, 0x00, 0x09, 0x00, 0x00, 0x00,
  0x00, 0x00, 0x00, 0x02, 0xf0, 0x00, 0x00, 0x00, 0x34, 0xf3, 0xff, 0xff,
  0x08, 0x00, 0x00, 0x00, 0x88, 0x00, 0x00, 0x00, 0x10, 0x00, 0x00, 0x00,
  0x00, 0x00, 0x00, 0x00, 0x00, 0x00, 0x00, 0x00, 0x00, 0x00, 0x00, 0x00,
  0x00, 0x00, 0x00, 0x00, 0x00, 0x00, 0x00, 0x00, 0x00, 0x00, 0x00, 0x00,
  0x00, 0x00, 0x00, 0x00, 0x00, 0x00, 0x00, 0x00, 0x00, 0x00, 0x00, 0x00,
  0x00, 0x00, 0x00, 0x00, 0x00, 0x00, 0x00, 0x00, 0x00, 0x00, 0x00, 0x00,
  0x00, 0x00, 0x00, 0x00, 0x00, 0x00, 0x00, 0x00, 0x00, 0x00, 0x00, 0x00,
  0x00, 0x00, 0x00, 0x00, 0x00, 0x00, 0x00, 0x00, 0x00, 0x00, 0x00, 0x00,
  0x00, 0x00, 0x00, 0x00, 0x00, 0x00, 0x00, 0x00, 0x00, 0x00, 0x00, 0x00,
  0x00, 0x00, 0x00, 0x00, 0x00, 0x00, 0x00, 0x00, 0x00, 0x00, 0x00, 0x00,
  0x00, 0x00, 0x00, 0x00, 0x00, 0x00, 0x00, 0x00, 0x00, 0x00, 0x00, 0x00,
  0x00, 0x00, 0x00, 0x00, 0x00, 0x00, 0x00, 0x00, 0x00, 0x00, 0x00, 0x00,
  0x00, 0x00, 0x00, 0x00, 0x00, 0x00, 0x00, 0x00, 0x10, 0x00, 0x00, 0x00,
  0x4f, 0x5a, 0x40, 0x3d, 0x26, 0x9c, 0x93, 0x3d, 0x91, 0xfc, 0x1e, 0x3d,
  0xf4, 0xbb, 0x2e, 0x3d, 0xd5, 0xb0, 0x64, 0x3d, 0xb5, 0xd7, 0xab, 0x3d,
  0xec, 0x7b, 0x4d, 0x3d, 0x0b, 0x06, 0xb7, 0x3d, 0xe3, 0x14, 0xb0, 0x3d,
  0xbf, 0xa9, 0xc9, 0x3d, 0xf3, 0x6d, 0xc4, 0x3d, 0x5e, 0xf0, 0x5c, 0x3d,
  0xc7, 0x12, 0x86, 0x3d, 0x8d, 0xc2, 0x8c, 0x3d, 0x9c, 0x7b, 0xb5, 0x3d,
  0x4d, 0xfc, 0xb5, 0x3d, 0x12, 0x00, 0x00, 0x00, 0x74, 0x66, 0x6c, 0x2e,
  0x70, 0x73, 0x65, 0x75, 0x64, 0x6f, 0x5f, 0x71, 0x63, 0x6f, 0x6e, 0x73,
  0x74, 0x36, 0x00, 0x00, 0x01, 0x00, 0x00, 0x00, 0x10, 0x00, 0x00, 0x00,
  0xca, 0xf4, 0xff, 0xff, 0x00, 0x00, 0x00, 0x01, 0x14, 0x00, 0x00, 0x00,
  0xa8, 0x01, 0x00, 0x00, 0x08, 0x00, 0x00, 0x00, 0x00, 0x00, 0x00, 0x09,
  0xb4, 0x01, 0x00, 0x00, 0x44, 0xf4, 0xff, 0xff, 0x08, 0x00, 0x00, 0x00,
  0x0c, 0x01, 0x00, 0x00, 0x20, 0x00, 0x00, 0x00, 0x00, 0x00, 0x00, 0x00,
  0x00, 0x00, 0x00, 0x00, 0x00, 0x00, 0x00, 0x00, 0x00, 0x00, 0x00, 0x00,
  0x00, 0x00, 0x00, 0x00, 0x00, 0x00, 0x00, 0x00, 0x00, 0x00, 0x00, 0x00,
  0x00, 0x00, 0x00, 0x00, 0x00, 0x00, 0x00, 0x00, 0x00, 0x00, 0x00, 0x00,
  0x00, 0x00, 0x00, 0x00, 0x00, 0x00, 0x00, 0x00, 0x00, 0x00, 0x00, 0x00,
  0x00, 0x00, 0x00, 0x00, 0x00, 0x00, 0x00, 0x00, 0x00, 0x00, 0x00, 0x00,
  0x00, 0x00, 0x00, 0x00, 0x00, 0x00, 0x00, 0x00, 0x00, 0x00, 0x00, 0x00,
  0x00, 0x00, 0x00, 0x00, 0x00, 0x00, 0x00, 0x00, 0x00, 0x00, 0x00, 0x00,
  0x00, 0x00, 0x00, 0x00, 0x00, 0x00, 0x00, 0x00, 0x00, 0x00, 0x00, 0x00,
  0x00, 0x00, 0x00, 0x00, 0x00, 0x00, 0x00, 0x00, 0x00, 0x00, 0x00, 0x00,
  0x00, 0x00, 0x00, 0x00, 0x00, 0x00, 0x00, 0x00, 0x00, 0x00, 0x00, 0x00,
  0x00, 0x00, 0x00, 0x00, 0x00, 0x00, 0x00, 0x00, 0x00, 0x00, 0x00, 0x00,
  0x00, 0x00, 0x00, 0x00, 0x00, 0x00, 0x00, 0x00, 0x00, 0x00, 0x00, 0x00,
  0x00, 0x00, 0x00, 0x00, 0x00, 0x00, 0x00, 0x00, 0x00, 0x00, 0x00, 0x00,
  0x00, 0x00, 0x00, 0x00, 0x00, 0x00, 0x00, 0x00, 0x00, 0x00, 0x00, 0x00,
  0x00, 0x00, 0x00, 0x00, 0x00, 0x00, 0x00, 0x00, 0x00, 0x00, 0x00, 0x00,
  0x00, 0x00, 0x00, 0x00, 0x00, 0x00, 0x00, 0x00, 0x00, 0x00, 0x00, 0x00,
  0x00, 0x00, 0x00, 0x00, 0x00, 0x00, 0x00, 0x00, 0x00, 0x00, 0x00, 0x00,
  0x00, 0x00, 0x00, 0x00, 0x00, 0x00, 0x00, 0x00, 0x00, 0x00, 0x00, 0x00,
  0x00, 0x00, 0x00, 0x00, 0x00, 0x00, 0x00, 0x00, 0x00, 0x00, 0x00, 0x00,
  0x00, 0x00, 0x00, 0x00, 0x00, 0x00, 0x00, 0x00, 0x00, 0x00, 0x00, 0x00,
  0x00, 0x00, 0x00, 0x00, 0x00, 0x00, 0x00, 0x00, 0x00, 0x00, 0x00, 0x00,
  0x00, 0x00, 0x00, 0x00, 0x20, 0x00, 0x00, 0x00, 0xab, 0xe7, 0xda, 0x3a,
  0x8d, 0xa8, 0xc7, 0x3a, 0x17, 0xb9, 0x20, 0x3b, 0xa7, 0x0e, 0xb9, 0x3a,
  0x5a, 0xa7, 0xe8, 0x3a, 0x43, 0x88, 0x04, 0x3b, 0x41, 0x17, 0xda, 0x3a,
  0x31, 0x73, 0xc7, 0x3a, 0x7e, 0xd9, 0xc1, 0x3a, 0x4f, 0x3c, 0xbd, 0x3a,
  0x29, 0xa4, 0xd8, 0x3a, 0x20, 0x26, 0xc1, 0x3a, 0x94, 0x79, 0xeb, 0x3a,
  0x9f, 0x05, 0xe6, 0x3a, 0x58, 0x55, 0x05, 0x3b, 0xd4, 0x28, 0xda, 0x3a,
  0xd0, 0xc1, 0xcf, 0x3a, 0x34, 0x84, 0x08, 0x3b, 0x3f, 0x74, 0xc5, 0x3a,
  0x61, 0x79, 0xd1, 0x3a, 0x2b, 0xe9, 0xe4, 0x3a, 0xe8, 0xa3, 0xf9, 0x3a,
  0x92, 0xad, 0xc8, 0x3a, 0x24, 0x4b, 0xb8, 0x3a, 0x3c, 0xfe, 0xb1, 0x3a,
  0x89, 0xc9, 0xc9, 0x3a, 0xc9, 0x6c, 0xb5, 0x3a, 0xe9, 0x09, 0xbd, 0x3a,
  0x30, 0xde, 0xc8, 0x3a, 0x4d, 0x0d, 0xd5, 0x3a, 0x52, 0x13, 0xbb, 0x3a,
  0x95, 0x8c, 0xcc, 0x3a, 0x12, 0x00, 0x00, 0x00, 0x74, 0x66, 0x6c, 0x2e,
  0x70, 0x73, 0x65, 0x75, 0x64, 0x6f, 0x5f, 0x71, 0x63, 0x6f, 0x6e, 0x73,
  0x74, 0x35, 0x00, 0x00, 0x04, 0x00, 0x00, 0x00, 0x20, 0x00, 0x00, 0x00,
  0x02, 0x00, 0x00, 0x00, 0x02, 0x00, 0x00, 0x00, 0x10, 0x00, 0x00, 0x00,
  0xaa, 0xf6, 0xff, 0xff, 0x00, 0x00, 0x00, 0x01, 0x14, 0x00, 0x00, 0x00,
  0xa4, 0x01, 0x00, 0x00, 0x07, 0x00, 0x00, 0x00, 0x00, 0x00, 0x00, 0x02,
  0xb0, 0x01, 0x00, 0x00, 0x24, 0xf6, 0xff, 0xff, 0x08, 0x00, 0x00, 0x00,
  0x08, 0x01, 0x00, 0x00, 0x20, 0x00, 0x00, 0x00, 0x00, 0x00, 0x00, 0x00,
  0x00, 0x00, 0x00, 0x00, 0x00, 0x00, 0x00, 0x00, 0x00, 0x00, 0x00, 0x00,
  0x00, 0x00, 0x00, 0x00, 0x00, 0x00, 0x00, 0x00, 0x00, 0x00, 0x00, 0x00,
  0x00, 0x00, 0x00, 0x00, 0x00, 0x00, 0x00, 0x00, 0x00, 0x00, 0x00, 0x00,
  0x00, 0x00, 0x00, 0x00, 0x00, 0x00, 0x00, 0x00, 0x00, 0x00, 0x00, 0x00,
  0x00, 0x00, 0x00, 0x00, 0x00, 0x00, 0x00, 0x00, 0x00, 0x00, 0x00, 0x00,
  0x00, 0x00, 0x00, 0x00, 0x00, 0x00, 0x00, 0x00, 0x00, 0x00, 0x00, 0x00,
  0x00, 0x00, 0x00, 0x00, 0x00, 0x00, 0x00, 0x00, 0x00, 0x00, 0x00, 0x00,
  0x00, 0x00, 0x00, 0x00, 0x00, 0x00, 0x00, 0x00, 0x00, 0x00, 0x00, 0x00,
  0x00, 0x00, 0x00, 0x00, 0x00, 0x00, 0x00, 0x00, 0x00, 0x00, 0x00, 0x00,
  0x00, 0x00, 0x00, 0x00, 0x00, 0x00, 0x00, 0x00, 0x00, 0x00, 0x00, 0x00,
  0x00, 0x00, 0x00, 0x00, 0x00, 0x00, 0x00, 0x00, 0x00, 0x00, 0x00, 0x00,
  0x00, 0x00, 0x00, 0x00, 0x00, 0x00, 0x00, 0x00, 0x00, 0x00, 0x00, 0x00,
  0x00, 0x00, 0x00, 0x00, 0x00, 0x00, 0x00, 0x00, 0x00, 0x00, 0x00, 0x00,
  0x00, 0x00, 0x00, 0x00, 0x00, 0x00, 0x00, 0x00, 0x00, 0x00, 0x00, 0x00,
  0x00, 0x00, 0x00, 0x00, 0x00, 0x00, 0x00, 0x00, 0x00, 0x00, 0x00, 0x00,
  0x00, 0x00, 0x00, 0x00, 0x00, 0x00, 0x00, 0x00, 0x00, 0x00, 0x00, 0x00,
  0x00, 0x00, 0x00, 0x00, 0x00, 0x00, 0x00, 0x00, 0x00, 0x00, 0x00, 0x00,
  0x00, 0x00, 0x00, 0x00, 0x00, 0x00, 0x00, 0x00, 0x00, 0x00, 0x00, 0x00,
  0x00, 0x00, 0x00, 0x00, 0x00, 0x00, 0x00, 0x00, 0x00, 0x00, 0x00, 0x00,
  0x00, 0x00, 0x00, 0x00, 0x00, 0x00, 0x00, 0x00, 0x00, 0x00, 0x00, 0x00,
  0x00, 0x00, 0x00, 0x00, 0x00, 0x00, 0x00, 0x00, 0x00, 0x00, 0x00, 0x00,
  0x20, 0x00, 0x00, 0x00, 0xde, 0x18, 0xa4, 0x3d, 0x5e, 0xab, 0x95, 0x3d,
  0xf8, 0xf6, 0xf0, 0x3d, 0x56, 0xb9, 0x8a, 0x3d, 0x52, 0x67, 0xae, 0x3d,
  0x1b, 0xb3, 0xc6, 0x3d, 0xa3, 0x7c, 0xa3, 0x3d, 0x5e, 0x83, 0x95, 0x3d,
  0xa0, 0x50, 0x91, 0x3d, 0x2e, 0xdb, 0x8d, 0x3d, 0x74, 0x66, 0xa2, 0x3d,
  0x2b, 0xca, 0x90, 0x3d, 0xb8, 0x84, 0xb0, 0x3d, 0x46, 0x6e, 0xac, 0x3d,
  0x93, 0xe6, 0xc7, 0x3d, 0xcf, 0x89, 0xa3, 0x3d, 0x8a, 0xbd, 0x9b, 0x3d,
  0x42, 0xac, 0xcc, 0x3d, 0x59, 0x04, 0x94, 0x3d, 0x0d, 0x07, 0x9d, 0x3d,
  0x0a, 0x99, 0xab, 0x3d, 0x1d, 0x23, 0xbb, 0x3d, 0x09, 0x6f, 0x96, 0x3d,
  0xc6, 0x26, 0x8a, 0x3d, 0xb2, 0x6d, 0x85, 0x3d, 0xe7, 0x43, 0x97, 0x3d,
  0x48, 0x00, 0x88, 0x3d, 0x66, 0xb5, 0x8d, 0x3d, 0x7a, 0x93, 0x96, 0x3d,
  0xa7, 0xb5, 0x9f, 0x3d, 0xa5, 0x3c, 0x8c, 0x3d, 0xec, 0x55, 0x99, 0x3d,
  0x12, 0x00, 0x00, 0x00, 0x74, 0x66, 0x6c, 0x2e, 0x70, 0x73, 0x65, 0x75,
  0x64, 0x6f, 0x5f, 0x71, 0x63, 0x6f, 0x6e, 0x73, 0x74, 0x34, 0x00, 0x00,
  0x01, 0x00, 0x00, 0x00, 0x20, 0x00, 0x00, 0x00, 0x7a, 0xf8, 0xff, 0xff,
  0x00, 0x00, 0x00, 0x01, 0x14, 0x00, 0x00, 0x00, 0x28, 0x03, 0x00, 0x00,
  0x06, 0x00, 0x00, 0x00, 0x00, 0x00, 0x00, 0x09, 0x34, 0x03, 0x00, 0x00,
  0xf4, 0xf7, 0xff, 0xff, 0x08, 0x00, 0x00, 0x00, 0x0c, 0x02, 0x00, 0x00,
  0x40, 0x00, 0x00, 0x00, 0x00, 0x00, 0x00, 0x00, 0x00, 0x00, 0x00, 0x00,
  0x00, 0x00, 0x00, 0x00, 0x00, 0x00, 0x00, 0x00, 0x00, 0x00, 0x00, 0x00,
  0x00, 0x00, 0x00, 0x00, 0x00, 0x00, 0x00, 0x00, 0x00, 0x00, 0x00, 0x00,
  0x00, 0x00, 0x00, 0x00, 0x00, 0x00, 0x00, 0x00, 0x00, 0x00, 0x00, 0x00,
  0x00, 0x00, 0x00, 0x00, 0x00, 0x00, 0x00, 0x00, 0x00, 0x00, 0x00, 0x00,
  0x00, 0x00, 0x00, 0x00, 0x00, 0x00, 0x00, 0x00, 0x00, 0x00, 0x00, 0x00,
  0x00, 0x00, 0x00, 0x00, 0x00, 0x00, 0x00, 0x00, 0x00, 0x00, 0x00, 0x00,
  0x00, 0x00, 0x00, 0x00, 0x00, 0x00, 0x00, 0x00, 0x00, 0x00, 0x00, 0x00,
  0x00, 0x00, 0x00, 0x00, 0x00, 0x00, 0x00, 0x00, 0x00, 0x00, 0x00, 0x00,
  0x00, 0x00, 0x00, 0x00, 0x00, 0x00, 0x00, 0x00, 0x00, 0x00, 0x00, 0x00,
  0x00, 0x00, 0x00, 0x00, 0x00, 0x00, 0x00, 0x00, 0x00, 0x00, 0x00, 0x00,
  0x00, 0x00, 0x00, 0x00, 0x00, 0x00, 0x00, 0x00, 0x00, 0x00, 0x00, 0x00,
  0x00, 0x00, 0x00, 0x00, 0x00, 0x00, 0x00, 0x00, 0x00, 0x00, 0x00, 0x00,
  0x00, 0x00, 0x00, 0x00, 0x00, 0x00, 0x00, 0x00, 0x00, 0x00, 0x00, 0x00,
  0x00, 0x00, 0x00, 0x00, 0x00, 0x00, 0x00, 0x00, 0x00, 0x00, 0x00, 0x00,
  0x00, 0x00, 0x00, 0x00, 0x00, 0x00, 0x00, 0x00, 0x00, 0x00, 0x00, 0x00,
  0x00, 0x00, 0x00, 0x00, 0x00, 0x00, 0x00, 0x00, 0x00, 0x00, 0x00, 0x00,
  0x00, 0x00, 0x00, 0x00, 0x00, 0x00, 0x00, 0x00, 0x00, 0x00, 0x00, 0x00,
  0x00, 0x00, 0x00, 0x00, 0x00, 0x00, 0x00, 0x00, 0x00, 0x00, 0x00, 0x00,
  0x00, 0x00, 0x00, 0x00, 0x00, 0x00, 0x00, 0x00, 0x00, 0x00, 0x00, 0x00,
  0x00, 0x00, 0x00, 0x00, 0x00, 0x00, 0x00, 0x00, 0x00, 0x00, 0x00, 0x00,
  0x00, 0x00, 0x00, 0x00, 0x00, 0x00, 0x00, 0x00, 0x00, 0x00, 0x00, 0x00,
  0x00, 0x00, 0x00, 0x00, 0x00, 0x00, 0x00, 0x00, 0x00, 0x00, 0x00, 0x00,
  0x00, 0x00, 0x00, 0x00, 0x00, 0x00, 0x00, 0x00, 0x00, 0x00, 0x00, 0x00,
  0x00, 0x00, 0x00, 0x00, 0x00, 0x00, 0x00, 0x00, 0x00, 0x00, 0x00, 0x00,
  0x00, 0x00, 0x00, 0x00, 0x00, 0x00, 0x00, 0x00, 0x00, 0x00, 0x00, 0x00,
  0x00, 0x00, 0x00, 0x00, 0x00, 0x00, 0x00, 0x00, 0x00, 0x00, 0x00, 0x00,
  0x00, 0x00, 0x00, 0x00, 0x00, 0x00, 0x00, 0x00, 0x00, 0x00, 0x00, 0x00,
  0x00, 0x00, 0x00, 0x00, 0x00, 0x00, 0x00, 0x00, 0x00, 0x00, 0x00, 0x00,
  0x00, 0x00, 0x00, 0x00, 0x00, 0x00, 0x00, 0x00, 0x00, 0x00, 0x00, 0x00,
  0x00, 0x00, 0x00, 0x00, 0x00, 0x00, 0x00, 0x00, 0x00, 0x00, 0x00, 0x00,
  0x00, 0x00, 0x00, 0x00, 0x00, 0x00, 0x00, 0x00, 0x00, 0x00, 0x00, 0x00,
  0x00, 0x00, 0x00, 0x00, 0x00, 0x00, 0x00, 0x00, 0x00, 0x00, 0x00, 0x00,
  0x00, 0x00, 0x00, 0x00, 0x00, 0x00, 0x00, 0x00, 0x00, 0x00, 0x00, 0x00,
  0x00, 0x00, 0x00, 0x00, 0x00, 0x00, 0x00, 0x00, 0x00, 0x00, 0x00, 0x00,
  0x00, 0x00, 0x00, 0x00, 0x00, 0x00, 0x00, 0x00, 0x00, 0x00, 0x00, 0x00,
  0x00, 0x00, 0x00, 0x00, 0x00, 0x00, 0x00, 0x00, 0x00, 0x00, 0x00, 0x00,
  0x00, 0x00, 0x00, 0x00, 0x00, 0x00, 0x00, 0x00, 0x00, 0x00, 0x00, 0x00,
  0x00, 0x00, 0x00, 0x00, 0x00, 0x00, 0x00, 0x00, 0x00, 0x00, 0x00, 0x00,
  0x00, 0x00, 0x00, 0x00, 0x00, 0x00, 0x00, 0x00, 0x00, 0x00, 0x00, 0x00,
  0x00, 0x00, 0x00, 0x00, 0x00, 0x00, 0x00, 0x00, 0x00, 0x00, 0x00, 0x00,
  0x00, 0x00, 0x00, 0x00, 0x00, 0x00, 0x00, 0x00, 0x00, 0x00, 0x00, 0x00,
  0x00, 0x00, 0x00, 0x00, 0x00, 0x00, 0x00, 0x00, 0x00, 0x00, 0x00, 0x00,
  0x00, 0x00, 0x00, 0x00, 0x40, 0x00, 0x00, 0x00, 0x1b, 0xf3, 0x16, 0x3b,
  0x38, 0xbf, 0x28, 0x3b, 0xe1, 0xea, 0x0d, 0x3b, 0x65, 0xf6, 0xe8, 0x3a,
  0xc3, 0x7b, 0x18, 0x3b, 0xfa, 0xee, 0x00, 0x3b, 0x75, 0xda, 0x00, 0x3b,
  0xa4, 0xa3, 0x1f, 0x3b, 0x10, 0x3e, 0x04, 0x3b, 0xde, 0x70, 0xfc, 0x3a,
  0x6e, 0xe5, 0x25, 0x3b, 0x98, 0xe2, 0x21, 0x3b, 0x38, 0x60, 0x12, 0x3b,
  0x9f, 0x30, 0x18, 0x3b, 0xf3, 0x78, 0xfb, 0x3a, 0x8d, 0xfe, 0x03, 0x3b,
  0xd2, 0xd6, 0x0d, 0x3b, 0x7b, 0xbb, 0xfc, 0x3a, 0x05, 0x5e, 0xfa, 0x3a,
  0x0e, 0x9f, 0xfd, 0x3a, 0x95, 0xd8, 0xff, 0x3a, 0x7a, 0xac, 0xf4, 0x3a,
  0x39, 0x19, 0x60, 0x3b, 0xe2, 0xe4, 0xe4, 0x3a, 0x5f, 0x53, 0xf7, 0x3a,
  0x47, 0x83, 0xfe, 0x3a, 0xb8, 0x62, 0x02, 0x3b, 0xb5, 0x08, 0xfb, 0x3a,
  0xc2, 0x10, 0x0f, 0x3b, 0x1e, 0xe7, 0xfb, 0x3a, 0xdf, 0x43, 0x07, 0x3b,
  0x71, 0x05, 0x01, 0x3b, 0x79, 0xb3, 0x9a, 0x3b, 0x8d, 0x9d, 0xea, 0x3a,
  0x75, 0xf0, 0xff, 0x3a, 0xf9, 0xfb, 0x0a, 0x3b, 0x7d, 0x95, 0x15, 0x3b,
  0x81, 0x42, 0x08, 0x3b, 0x67, 0x45, 0xf1, 0x3a, 0x67, 0x24, 0x45, 0x3b,
  0xc7, 0xd2, 0x03, 0x3b, 0xe9, 0x54, 0x95, 0x3b, 0x3f, 0x6c, 0x00, 0x3b,
  0xe0, 0x2a, 0x00, 0x3b, 0xea, 0xf5, 0x0e, 0x3b, 0x47, 0xe1, 0x83, 0x3b,
  0x3b, 0x9a, 0xf2, 0x3a, 0x10, 0xc3, 0xfb, 0x3a, 0xc6, 0x11, 0x18, 0x3b,
  0xa6, 0x0a, 0x1e, 0x3b, 0x32, 0x3b, 0xf2, 0x3a, 0xa6, 0xa6, 0xf2, 0x3a,
  0xd3, 0x70, 0x06, 0x3b, 0xfc, 0x77, 0x03, 0x3b, 0x84, 0xbb, 0xfa, 0x3a,
  0x8a, 0xb3, 0x2b, 0x3b, 0x14, 0x13, 0x04, 0x3b, 0x96, 0xd4, 0x06, 0x3b,
  0xc2, 0xc6, 0xf6, 0x3a, 0x24, 0x38, 0x15, 0x3b, 0xc7, 0x3e, 0x05, 0x3b,
  0xd8, 0xf9, 0x19, 0x3b, 0x98, 0x15, 0xfd, 0x3a, 0xf8, 0xd7, 0xf8, 0x3a,
  0x12, 0x00, 0x00, 0x00, 0x74, 0x66, 0x6c, 0x2e, 0x70, 0x73, 0x65, 0x75,
  0x64, 0x6f, 0x5f, 0x71, 0x63, 0x6f, 0x6e, 0x73, 0x74, 0x33, 0x00, 0x00,
  0x02, 0x00, 0x00, 0x00, 0x40, 0x00, 0x00, 0x00, 0x20, 0x00, 0x00, 0x00,
  0xd2, 0xfb, 0xff, 0xff, 0x00, 0x00, 0x00, 0x01, 0x14, 0x00, 0x00, 0x00,
  0x24, 0x03, 0x00, 0x00, 0x05, 0x00, 0x00, 0x00, 0x00, 0x00, 0x00, 0x02,
  0x30, 0x03, 0x00, 0x00, 0x4c, 0xfb, 0xff, 0xff, 0x08, 0x00, 0x00, 0x00,
  0x08, 0x02, 0x00, 0x00, 0x40, 0x00, 0x00, 0x00, 0x00, 0x00, 0x00, 0x00,
  0x00, 0x00, 0x00, 0x00, 0x00, 0x00, 0x00, 0x00, 0x00, 0x00, 0x00, 0x00,
  0x00, 0x00, 0x00, 0x00, 0x00, 0x00, 0x00, 0x00, 0x00, 0x00, 0x00, 0x00,
  0x00, 0x00, 0x00, 0x00, 0x00, 0x00, 0x00, 0x00, 0x00, 0x00, 0x00, 0x00,
  0x00, 0x00, 0x00, 0x00, 0x00, 0x00, 0x00, 0x00, 0x00, 0x00, 0x00, 0x00,
  0x00, 0x00, 0x00, 0x00, 0x00, 0x00, 0x00, 0x00, 0x00, 0x00, 0x00, 0x00,
  0x00, 0x00, 0x00, 0x00, 0x00, 0x00, 0x00, 0x00, 0x00, 0x00, 0x00, 0x00,
  0x00, 0x00, 0x00, 0x00, 0x00, 0x00, 0x00, 0x00, 0x00, 0x00, 0x00, 0x00,
  0x00, 0x00, 0x00, 0x00, 0x00, 0x00, 0x00, 0x00, 0x00, 0x00, 0x00, 0x00,
  0x00, 0x00, 0x00, 0x00, 0x00, 0x00, 0x00, 0x00, 0x00, 0x00, 0x00, 0x00,
  0x00, 0x00, 0x00, 0x00, 0x00, 0x00, 0x00, 0x00, 0x00, 0x00, 0x00, 0x00,
  0x00, 0x00, 0x00, 0x00, 0x00, 0x00, 0x00, 0x00, 0x00, 0x00, 0x00, 0x00,
  0x00, 0x00, 0x00, 0x00, 0x00, 0x00, 0x00, 0x00, 0x00, 0x00, 0x00, 0x00,
  0x00, 0x00, 0x00, 0x00, 0x00, 0x00, 0x00, 0x00, 0x00, 0x00, 0x00, 0x00,
  0x00, 0x00, 0x00, 0x00, 0x00, 0x00, 0x00, 0x00, 0x00, 0x00, 0x00, 0x00,
  0x00, 0x00, 0x00, 0x00, 0x00, 0x00, 0x00, 0x00, 0x00, 0x00, 0x00, 0x00,
  0x00, 0x00, 0x00, 0x00, 0x00, 0x00, 0x00, 0x00, 0x00, 0x00, 0x00, 0x00,
  0x00, 0x00, 0x00, 0x00, 0x00, 0x00, 0x00, 0x00, 0x00, 0x00, 0x00, 0x00,
  0x00, 0x00, 0x00, 0x00, 0x00, 0x00, 0x00, 0x00, 0x00, 0x00, 0x00, 0x00,
  0x00, 0x00, 0x00, 0x00, 0x00, 0x00, 0x00, 0x00, 0x00, 0x00, 0x00, 0x00,
  0x00, 0x00, 0x00, 0x00, 0x00, 0x00, 0x00, 0x00, 0x00, 0x00, 0x00, 0x00,
  0x00, 0x00, 0x00, 0x00, 0x00, 0x00, 0x00, 0x00, 0x00, 0x00, 0x00, 0x00,
  0x00, 0x00, 0x00, 0x00, 0x00, 0x00, 0x00, 0x00, 0x00, 0x00, 0x00, 0x00,
  0x00, 0x00, 0x00, 0x00, 0x00, 0x00, 0x00, 0x00, 0x00, 0x00, 0x00, 0x00,
  0x00, 0x00, 0x00, 0x00, 0x00, 0x00, 0x00, 0x00, 0x00, 0x00, 0x00, 0x00,
  0x00, 0x00, 0x00, 0x00, 0x00, 0x00, 0x00, 0x00, 0x00, 0x00, 0x00, 0x00,
  0x00, 0x00, 0x00, 0x00, 0x00, 0x00, 0x00, 0x00, 0x00, 0x00, 0x00, 0x00,
  0x00, 0x00, 0x00, 0x00, 0x00, 0x00, 0x00, 0x00, 0x00, 0x00, 0x00, 0x00,
  0x00, 0x00, 0x00, 0x00, 0x00, 0x00, 0x00, 0x00, 0x00, 0x00, 0x00, 0x00,
  0x00, 0x00, 0x00, 0x00, 0x00, 0x00, 0x00, 0x00, 0x00, 0x00, 0x00, 0x00,
  0x00, 0x00, 0x00, 0x00, 0x00, 0x00, 0x00, 0x00, 0x00, 0x00, 0x00, 0x00,
  0x00, 0x00, 0x00, 0x00, 0x00, 0x00, 0x00, 0x00, 0x00, 0x00, 0x00, 0x00,
  0x00, 0x00, 0x00, 0x00, 0x00, 0x00, 0x00, 0x00, 0x00, 0x00, 0x00, 0x00,
  0x00, 0x00, 0x00, 0x00, 0x00, 0x00, 0x00, 0x00, 0x00, 0x00, 0x00, 0x00,
  0x00, 0x00, 0x00, 0x00, 0x00, 0x00, 0x00, 0x00, 0x00, 0x00, 0x00, 0x00,
  0x00, 0x00, 0x00, 0x00, 0x00, 0x00, 0x00, 0x00, 0x00, 0x00, 0x00, 0x00,
  0x00, 0x00, 0x00, 0x00, 0x00, 0x00, 0x00, 0x00, 0x00, 0x00, 0x00, 0x00,
  0x00, 0x00, 0x00, 0x00, 0x00, 0x00, 0x00, 0x00, 0x00, 0x00, 0x00, 0x00,
  0x00, 0x00, 0x00, 0x00, 0x00, 0x00, 0x00, 0x00, 0x00, 0x00, 0x00, 0x00,
  0x00, 0x00, 0x00, 0x00, 0x00, 0x00, 0x00, 0x00, 0x00, 0x00, 0x00, 0x00,
  0x00, 0x00, 0x00, 0x00, 0x00, 0x00, 0x00, 0x00, 0x00, 0x00, 0x00, 0x00,
  0x00, 0x00, 0x00, 0x00, 0x00, 0x00, 0x00, 0x00, 0x00, 0x00, 0x00, 0x00,
  0x00, 0x00, 0x00, 0x00, 0x00, 0x00, 0x00, 0x00, 0x00, 0x00, 0x00, 0x00,
  0x00, 0x00, 0x00, 0x00, 0x40, 0x00, 0x00, 0x00, 0xd4, 0x67, 0x02, 0x3c,
  0xdd, 0xc7, 0x11, 0x3c, 0x97, 0x34, 0xf5, 0x3b, 0xb0, 0x41, 0xc9, 0x3b,
  0x0c, 0xbb, 0x03, 0x3c, 0x8b, 0xc5, 0xde, 0x3b, 0x16, 0xa2, 0xde, 0x3b,
  0x9c, 0xe9, 0x09, 0x3c, 0x23, 0x7d, 0xe4, 0x3b, 0x82, 0x15, 0xda, 0x3b,
  0x65, 0x51, 0x0f, 0x3c, 0x50, 0xda, 0x0b, 0x3c, 0x99, 0xe8, 0xfc, 0x3b,
  0x22, 0x7a, 0x03, 0x3c, 0x55, 0x3f, 0xd9, 0x3b, 0x67, 0x0f, 0xe4, 0x3b,
  0xee, 0x11, 0xf5, 0x3b, 0xf7, 0x55, 0xda, 0x3b, 0xe8, 0x4a, 0xd8, 0x3b,
  0x91, 0x1a, 0xdb, 0x3b, 0x95, 0x06, 0xdd, 0x3b, 0xbc, 0x5f, 0xd3, 0x3b,
  0x59, 0x99, 0x41, 0x3c, 0xed, 0xbd, 0xc5, 0x3b, 0x3c, 0xaa, 0xd5, 0x3b,
  0xbb, 0xdf, 0xdb, 0x3b, 0xd7, 0x47, 0xe1, 0x3b, 0x5d, 0xde, 0xd8, 0x3b,
  0x5a, 0x30, 0xf7, 0x3b, 0x81, 0x9e, 0xd9, 0x3b, 0x20, 0xb6, 0xe9, 0x3b,
  0x5b, 0xec, 0xde, 0x3b, 0x7e, 0xa5, 0x85, 0x3c, 0x41, 0xaf, 0xca, 0x3b,
  0x36, 0x1b, 0xdd, 0x3b, 0x2c, 0x23, 0xf0, 0x3b, 0xcc, 0x39, 0x01, 0x3c,
  0x15, 0x6e, 0xeb, 0x3b, 0x36, 0x6f, 0xd0, 0x3b, 0xb8, 0x4f, 0x2a, 0x3c,
  0xc5, 0xc3, 0xe3, 0x3b, 0x01, 0x02, 0x81, 0x3c, 0xaa, 0xe3, 0xdd, 0x3b,
  0xb7, 0x72, 0xdd, 0x3b, 0xf9, 0x01, 0xf7, 0x3b, 0xd3, 0xdc, 0x63, 0x3c,
  0xa8, 0x95, 0xd1, 0x3b, 0x5c, 0x7f, 0xd9, 0x3b, 0x7c, 0x5f, 0x03, 0x3c,
  0x48, 0x88, 0x08, 0x3c, 0x8e, 0x43, 0xd1, 0x3b, 0x62, 0xa0, 0xd1, 0x3b,
  0x7b, 0x49, 0xe8, 0x3b, 0xe6, 0x26, 0xe3, 0x3b, 0xae, 0x9b, 0xd8, 0x3b,
  0x40, 0x55, 0x14, 0x3c, 0xdf, 0x32, 0xe4, 0x3b, 0xd9, 0xf5, 0xe8, 0x3b,
  0xc2, 0x30, 0xd5, 0x3b, 0x27, 0xe9, 0x00, 0x3c, 0xb1, 0x38, 0xe6, 0x3b,
  0x21, 0x05, 0x05, 0x3c, 0xd1, 0xa3, 0xda, 0x3b, 0xf1, 0xf9, 0xd6, 0x3b,
  0x12, 0x00, 0x00, 0x00, 0x74, 0x66, 0x6c, 0x2e, 0x70, 0x73, 0x65, 0x75,
  0x64, 0x6f, 0x5f, 0x71, 0x63, 0x6f, 0x6e, 0x73, 0x74, 0x32, 0x00, 0x00,
  0x01, 0x00, 0x00, 0x00, 0x40, 0x00, 0x00, 0x00, 0x22, 0xff, 0xff, 0xff,
  0x00, 0x00, 0x00, 0x01, 0x14, 0x00, 0x00, 0x00, 0x40, 0x00, 0x00, 0x00,
  0x04, 0x00, 0x00, 0x00, 0x00, 0x00, 0x00, 0x09, 0x4c, 0x00, 0x00, 0x00,
  0x9c, 0xfe, 0xff, 0xff, 0x08, 0x00, 0x00, 0x00, 0x1c, 0x00, 0x00, 0x00,
  0x02, 0x00, 0x00, 0x00, 0x00, 0x00, 0x00, 0x00, 0x00, 0x00, 0x00, 0x00,
  0x00, 0x00, 0x00, 0x00, 0x00, 0x00, 0x00, 0x00, 0x00, 0x00, 0x00, 0x00,
  0x02, 0x00, 0x00, 0x00, 0x36, 0x31, 0x20, 0x3b, 0x69, 0xc1, 0x17, 0x3b,
  0x12, 0x00, 0x00, 0x00, 0x74, 0x66, 0x6c, 0x2e, 0x70, 0x73, 0x65, 0x75,
  0x64, 0x6f, 0x5f, 0x71, 0x63, 0x6f, 0x6e, 0x73, 0x74, 0x31, 0x00, 0x00,
  0x02, 0x00, 0x00, 0x00, 0x02, 0x00, 0x00, 0x00, 0x40, 0x00, 0x00, 0x00,
  0x92, 0xff, 0xff, 0xff, 0x00, 0x00, 0x00, 0x01, 0x14, 0x00, 0x00, 0x00,
  0x40, 0x00, 0x00, 0x00, 0x03, 0x00, 0x00, 0x00, 0x00, 0x00, 0x00, 0x02,
  0x4c, 0x00, 0x00, 0x00, 0x0c, 0xff, 0xff, 0xff, 0x08, 0x00, 0x00, 0x00,
  0x1c, 0x00, 0x00, 0x00, 0x02, 0x00, 0x00, 0x00, 0x00, 0x00, 0x00, 0x00,
  0x00, 0x00, 0x00, 0x00, 0x00, 0x00, 0x00, 0x00, 0x00, 0x00, 0x00, 0x00,
  0x00, 0x00, 0x00, 0x00, 0x02, 0x00, 0x00, 0x00, 0xd9, 0xf8, 0xa4, 0x3a,
  0x9a, 0x48, 0x9c, 0x3a, 0x11, 0x00, 0x00, 0x00, 0x74, 0x66, 0x6c, 0x2e,
  0x70, 0x73, 0x65, 0x75, 0x64, 0x6f, 0x5f, 0x71, 0x63, 0x6f, 0x6e, 0x73,
  0x74, 0x00, 0x00, 0x00, 0x01, 0x00, 0x00, 0x00, 0x02, 0x00, 0x00, 0x00,
  0x00, 0x00, 0x16, 0x00, 0x1c, 0x00, 0x18, 0x00, 0x17, 0x00, 0x10, 0x00,
  0x0c, 0x00, 0x08, 0x00, 0x00, 0x00, 0x00, 0x00, 0x00, 0x00, 0x07, 0x00,
  0x16, 0x00, 0x00, 0x00, 0x00, 0x00, 0x00, 0x01, 0x18, 0x00, 0x00, 0x00,
  0x18, 0x00, 0x00, 0x00, 0x02, 0x00, 0x00, 0x00, 0x00, 0x00, 0x00, 0x02,
  0x20, 0x00, 0x00, 0x00, 0x04, 0x00, 0x04, 0x00, 0x04, 0x00, 0x00, 0x00,
  0x0e, 0x00, 0x00, 0x00, 0x61, 0x72, 0x69, 0x74, 0x68, 0x2e, 0x63, 0x6f,
  0x6e, 0x73, 0x74, 0x61, 0x6e, 0x74, 0x00, 0x00, 0x01, 0x00, 0x00, 0x00,
  0x02, 0x00, 0x00, 0x00, 0x00, 0x00, 0x16, 0x00, 0x20, 0x00, 0x1c, 0x00,
  0x1b, 0x00, 0x14, 0x00, 0x10, 0x00, 0x0c, 0x00, 0x00, 0x00, 0x00, 0x00,
  0x08, 0x00, 0x07, 0x00, 0x16, 0x00, 0x00, 0x00, 0x00, 0x00, 0x00, 0x01,
  0x18, 0x00, 0x00, 0x00, 0x34, 0x00, 0x00, 0x00, 0x54, 0x00, 0x00, 0x00,
  0x01, 0x00, 0x00, 0x00, 0x00, 0x00, 0x00, 0x09, 0x6c, 0x00, 0x00, 0x00,
  0x04, 0x00, 0x00, 0x00, 0xff, 0xff, 0xff, 0xff, 0x40, 0x00, 0x00, 0x00,
  0x14, 0x00, 0x00, 0x00, 0x01, 0x00, 0x00, 0x00, 0x0c, 0x00, 0x0c, 0x00,
  0x00, 0x00, 0x00, 0x00, 0x08, 0x00, 0x04, 0x00, 0x0c, 0x00, 0x00, 0x00,
  0x08, 0x00, 0x00, 0x00, 0x14, 0x00, 0x00, 0x00, 0x01, 0x00, 0x00, 0x00,
  0x80, 0xff, 0xff, 0xff, 0xff, 0xff, 0xff, 0xff, 0x00, 0x00, 0x00, 0x00,
  0x01, 0x00, 0x00, 0x00, 0x0e, 0x96, 0x2b, 0x42, 0x1e, 0x00, 0x00, 0x00,
  0x73, 0x65, 0x72, 0x76, 0x69, 0x6e, 0x67, 0x5f, 0x64, 0x65, 0x66, 0x61,
  0x75, 0x6c, 0x74, 0x5f, 0x6b, 0x65, 0x72, 0x61, 0x73, 0x5f, 0x74, 0x65,
  0x6e, 0x73, 0x6f, 0x72, 0x3a, 0x30, 0x00, 0x00, 0x04, 0x00, 0x00, 0x00,
  0x01, 0x00, 0x00, 0x00, 0x40, 0x00, 0x00, 0x00, 0x14, 0x00, 0x00, 0x00,
  0x01, 0x00, 0x00, 0x00, 0x05, 0x00, 0x00, 0x00, 0x60, 0x00, 0x00, 0x00,
  0x40, 0x00, 0x00, 0x00, 0x2c, 0x00, 0x00, 0x00, 0x18, 0x00, 0x00, 0x00,
  0x04, 0x00, 0x00, 0x00, 0xc0, 0xff, 0xff, 0xff, 0x19, 0x00, 0x00, 0x00,
  0x02, 0x00, 0x00, 0x00, 0x00, 0x00, 0x00, 0x19, 0xd0, 0xff, 0xff, 0xff,
  0x09, 0x00, 0x00, 0x00, 0x04, 0x00, 0x00, 0x00, 0x00, 0x00, 0x00, 0x09,
  0xe0, 0xff, 0xff, 0xff, 0x28, 0x00, 0x00, 0x00, 0x02, 0x00, 0x00, 0x00,
  0x00, 0x00, 0x00, 0x28, 0xf0, 0xff, 0xff, 0xff, 0x11, 0x00, 0x00, 0x00,
  0x02, 0x00, 0x00, 0x00, 0x00, 0x00, 0x00, 0x11, 0x0c, 0x00, 0x10, 0x00,
  0x0f, 0x00, 0x00, 0x00, 0x08, 0x00, 0x04, 0x00, 0x0c, 0x00, 0x00, 0x00,
  0x03, 0x00, 0x00, 0x00, 0x03, 0x00, 0x00, 0x00, 0x00, 0x00, 0x00, 0x03
};
const int g_model_len = 11304;